{
  "Vocab": {
    "\u003Cpad\u003E": 0,
    "\u003Cunk\u003E": 1,
    "\u003Cbos\u003E": 2,
    "\u003Ceos\u003E": 3,
    "!": 4,
    "\u0022": 5,
    "%": 6,
    "\u0027": 7,
    "(": 8,
    ")": 9,
    "\u002B": 10,
    ",": 11,
    "-": 12,
    ".": 13,
    "/": 14,
    "0": 15,
    "1": 16,
    "2": 17,
    "3": 18,
    "4": 19,
    "5": 20,
    "6": 21,
    "7": 22,
    "8": 23,
    "9": 24,
    ":": 25,
    ";": 26,
    "\u003C/w\u003E": 27,
    "?": 28,
    "[": 29,
    "]": 30,
    "a": 31,
    "b": 32,
    "c": 33,
    "d": 34,
    "e": 35,
    "f": 36,
    "g": 37,
    "h": 38,
    "i": 39,
    "j": 40,
    "k": 41,
    "l": 42,
    "m": 43,
    "n": 44,
    "o": 45,
    "p": 46,
    "q": 47,
    "r": 48,
    "s": 49,
    "t": 50,
    "u": 51,
    "v": 52,
    "w": 53,
    "x": 54,
    "y": 55,
    "z": 56,
    "\u00A1": 57,
    "\u00AA": 58,
    "\u00AB": 59,
    "\u00B0": 60,
    "\u00B2": 61,
    "\u00BA": 62,
    "\u00BB": 63,
    "\u00BF": 64,
    "\u00E1": 65,
    "\u00E3": 66,
    "\u00E9": 67,
    "\u00EA": 68,
    "\u00ED": 69,
    "\u00EF": 70,
    "\u00F1": 71,
    "\u00F3": 72,
    "\u00F4": 73,
    "\u00F6": 74,
    "\u00FA": 75,
    "\u00FC": 76,
    "\u00FF": 77,
    "\u2014": 78,
    "\u2018": 79,
    "\u201C": 80,
    "\u201D": 81,
    "\u2026": 82,
    "\u2030": 83,
    "\u2032": 84,
    "\u2033": 85,
    "\u2212": 86,
    "\uFEFF": 87,
    "a\u003C/w\u003E": 88,
    "s\u003C/w\u003E": 89,
    "e\u003C/w\u003E": 90,
    "o\u003C/w\u003E": 91,
    "en": 92,
    "l\u003C/w\u003E": 93,
    "de\u003C/w\u003E": 94,
    ",\u003C/w\u003E": 95,
    "n\u003C/w\u003E": 96,
    "ar": 97,
    "er": 98,
    "os\u003C/w\u003E": 99,
    "ci": 100,
    "or": 101,
    "el\u003C/w\u003E": 102,
    "la\u003C/w\u003E": 103,
    "es\u003C/w\u003E": 104,
    "ad": 105,
    "as\u003C/w\u003E": 106,
    "ent": 107,
    "an": 108,
    "es": 109,
    "co": 110,
    "in": 111,
    "y\u003C/w\u003E": 112,
    ".\u003C/w\u003E": 113,
    "al": 114,
    "qu": 115,
    "on": 116,
    "ti": 117,
    "pr": 118,
    "am": 119,
    "re": 120,
    "un": 121,
    "\u00F3n\u003C/w\u003E": 122,
    "los\u003C/w\u003E": 123,
    "si": 124,
    "ri": 125,
    "que\u003C/w\u003E": 126,
    "est": 127,
    "del\u003C/w\u003E": 128,
    "se\u003C/w\u003E": 129,
    "or\u003C/w\u003E": 130,
    "su": 131,
    "aci": 132,
    "cu": 133,
    "di": 134,
    "st": 135,
    "par": 136,
    "gu": 137,
    "do\u003C/w\u003E": 138,
    "las\u003C/w\u003E": 139,
    "ab": 140,
    "pro": 141,
    "tr": 142,
    "dad": 143,
    "mi": 144,
    "tu": 145,
    "com": 146,
    "ch": 147,
    "ant": 148,
    "li": 149,
    "vi": 150,
    "em": 151,
    "por\u003C/w\u003E": 152,
    "ente\u003C/w\u003E": 153,
    "ac": 154,
    "ob": 155,
    "dad\u003C/w\u003E": 156,
    "aci\u00F3n\u003C/w\u003E": 157,
    "ar\u003C/w\u003E": 158,
    "entes\u003C/w\u003E": 159,
    "le": 160,
    "\u00F3\u003C/w\u003E": 161,
    "ca\u003C/w\u003E": 162,
    "de": 163,
    "lo\u003C/w\u003E": 164,
    "(\u003C/w\u003E": 165,
    ")\u003C/w\u003E": 166,
    "ca": 167,
    "gr": 168,
    "pa": 169,
    "\u00E1\u003C/w\u003E": 170,
    "bi": 171,
    "to\u003C/w\u003E": 172,
    "una\u003C/w\u003E": 173,
    "cia\u003C/w\u003E": 174,
    "pu": 175,
    "pi": 176,
    "su\u003C/w\u003E": 177,
    "\u0022\u003C/w\u003E": 178,
    "lu": 179,
    "\u00EDa\u003C/w\u003E": 180,
    "ter": 181,
    "corri": 182,
    "provin": 183,
    "po": 184,
    "te\u003C/w\u003E": 185,
    "corrientes\u003C/w\u003E": 186,
    "om": 187,
    "fi": 188,
    "ones\u003C/w\u003E": 189,
    "pe": 190,
    "ur": 191,
    "como\u003C/w\u003E": 192,
    "ta\u003C/w\u003E": 193,
    "r\u00ED": 194,
    "se": 195,
    "ada\u003C/w\u003E": 196,
    "fu": 197,
    "\u00E1s\u003C/w\u003E": 198,
    "gi": 199,
    "la": 200,
    "ex": 201,
    "\u00ED\u003C/w\u003E": 202,
    "ci\u00F3n\u003C/w\u003E": 203,
    "ciu": 204,
    "da\u003C/w\u003E": 205,
    "\u00E9\u003C/w\u003E": 206,
    "ba": 207,
    "za\u003C/w\u003E": 208,
    "ro": 209,
    "ern": 210,
    "ciudad\u003C/w\u003E": 211,
    "0\u003C/w\u003E": 212,
    "para\u003C/w\u003E": 213,
    "agu": 214,
    "provincia\u003C/w\u003E": 215,
    "mu": 216,
    "era\u003C/w\u003E": 217,
    "m\u00E1s\u003C/w\u003E": 218,
    "tam": 219,
    "r\u00EDo\u003C/w\u003E": 220,
    "me": 221,
    "z\u003C/w\u003E": 222,
    "tiv": 223,
    "for": 224,
    "te": 225,
    "ra": 226,
    "ya\u003C/w\u003E": 227,
    "to": 228,
    ";\u003C/w\u003E": 229,
    "ce": 230,
    "ni": 231,
    "so\u003C/w\u003E": 232,
    "ma": 233,
    "dos\u003C/w\u003E": 234,
    "ay\u003C/w\u003E": 235,
    "lo": 236,
    "du": 237,
    "qui": 238,
    "fue\u003C/w\u003E": 239,
    "bu": 240,
    "go\u003C/w\u003E": 241,
    "sus\u003C/w\u003E": 242,
    ":\u003C/w\u003E": 243,
    "ju": 244,
    "ve": 245,
    "mo\u003C/w\u003E": 246,
    "go": 247,
    "so": 248,
    "\u00E9n\u003C/w\u003E": 249,
    "tambi": 250,
    "tambi\u00E9n\u003C/w\u003E": 251,
    "paran\u00E1\u003C/w\u003E": 252,
    "\u00BA\u003C/w\u003E": 253,
    "arg": 254,
    "pue": 255,
    "guaran": 256,
    "bre\u003C/w\u003E": 257,
    "mo": 258,
    "ando\u003C/w\u003E": 259,
    "cial\u003C/w\u003E": 260,
    "el": 261,
    "18": 262,
    "acion": 263,
    "tas\u003C/w\u003E": 264,
    "argentin": 265,
    "b\u00BA\u003C/w\u003E": 266,
    "sa\u003C/w\u003E": 267,
    "don": 268,
    "regi": 269,
    "gen": 270,
    "no\u003C/w\u003E": 271,
    "cul": 272,
    "pa\u00F1": 273,
    "zon": 274,
    "ne": 275,
    "gobern": 276,
    "ru": 277,
    "chamam": 278,
    "do": 279,
    "chamam\u00E9\u003C/w\u003E": 280,
    "au": 281,
    "na": 282,
    "vo": 283,
    "\u00FA\u003C/w\u003E": 284,
    "sig": 285,
    "parte\u003C/w\u003E": 286,
    "cre": 287,
    "bo": 288,
    "que": 289,
    "cho\u003C/w\u003E": 290,
    "endo\u003C/w\u003E": 291,
    "ha": 292,
    "2\u003C/w\u003E": 293,
    "lle": 294,
    "hi": 295,
    "r\u003C/w\u003E": 296,
    "1\u003C/w\u003E": 297,
    "hasta\u003C/w\u003E": 298,
    "19": 299,
    "vari": 300,
    "ta": 301,
    "donde\u003C/w\u003E": 302,
    "san\u003C/w\u003E": 303,
    "das\u003C/w\u003E": 304,
    "as": 305,
    "a\u00F1": 306,
    "smo\u003C/w\u003E": 307,
    "parti": 308,
    "ber": 309,
    "ai": 310,
    "cias\u003C/w\u003E": 311,
    "regi\u00F3n\u003C/w\u003E": 312,
    "jo\u003C/w\u003E": 313,
    "desde\u003C/w\u003E": 314,
    "lla\u003C/w\u003E": 315,
    "nu": 316,
    "-\u003C/w\u003E": 317,
    "clu": 318,
    "5\u003C/w\u003E": 319,
    "os": 320,
    "goya\u003C/w\u003E": 321,
    "\u00E9s\u003C/w\u003E": 322,
    "20": 323,
    "xi": 324,
    "8\u003C/w\u003E": 325,
    "cci\u00F3n\u003C/w\u003E": 326,
    "medi": 327,
    "espe": 328,
    "siones\u003C/w\u003E": 329,
    "arro": 330,
    "6\u003C/w\u003E": 331,
    "dan": 332,
    "r\u00EDos\u003C/w\u003E": 333,
    "m\u003C/w\u003E": 334,
    "paraguay\u003C/w\u003E": 335,
    "pla": 336,
    "3\u003C/w\u003E": 337,
    "forma\u003C/w\u003E": 338,
    "guaran\u00ED\u003C/w\u003E": 339,
    "si\u00F3n\u003C/w\u003E": 340,
    "\u00E1n\u003C/w\u003E": 341,
    "fe": 342,
    "terri": 343,
    "enos\u003C/w\u003E": 344,
    "provincial\u003C/w\u003E": 345,
    "reali": 346,
    "buenos\u003C/w\u003E": 347,
    "aires\u003C/w\u003E": 348,
    "siglo\u003C/w\u003E": 349,
    "ciones\u003C/w\u003E": 350,
    "may": 351,
    "territori": 352,
    "santa\u003C/w\u003E": 353,
    "m\u00FA": 354,
    "m\u00FAsi": 355,
    "juan\u003C/w\u003E": 356,
    "va\u003C/w\u003E": 357,
    "espa\u00F1": 358,
    "im": 359,
    "nor": 360,
    "muy\u003C/w\u003E": 361,
    "actu": 362,
    "c\u003C/w\u003E": 363,
    "\u00E1n": 364,
    "pueb": 365,
    "stitu": 366,
    "4\u003C/w\u003E": 367,
    "especi": 368,
    "capi": 369,
    "princi": 370,
    "distin": 371,
    "ja\u003C/w\u003E": 372,
    "00\u003C/w\u003E": 373,
    "misiones\u003C/w\u003E": 374,
    "ber\u00E1\u003C/w\u003E": 375,
    "d\u003C/w\u003E": 376,
    "nom": 377,
    "guaran\u00ED": 378,
    "dis": 379,
    "as\u00ED\u003C/w\u003E": 380,
    "ej": 381,
    "ga\u003C/w\u003E": 382,
    "iber\u00E1\u003C/w\u003E": 383,
    "musi": 384,
    "flu": 385,
    "est\u00E1\u003C/w\u003E": 386,
    "fund": 387,
    "pli": 388,
    "zo\u003C/w\u003E": 389,
    "urugu": 390,
    "sie": 391,
    "siete\u003C/w\u003E": 392,
    "otros\u003C/w\u003E": 393,
    "produ": 394,
    "todo\u003C/w\u003E": 395,
    "jos": 396,
    "jos\u00E9\u003C/w\u003E": 397,
    "az": 398,
    "encu": 399,
    "t\u00ED": 400,
    "l\u00ED": 401,
    "7\u003C/w\u003E": 402,
    "desarro": 403,
    "uruguay\u003C/w\u003E": 404,
    "\u2014\u003C/w\u003E": 405,
    "cono": 406,
    "guaran\u00EDes\u003C/w\u003E": 407,
    "cri": 408,
    "constitu": 409,
    "cto\u003C/w\u003E": 410,
    "\u201C\u003C/w\u003E": 411,
    "gobierno\u003C/w\u003E": 412,
    "m\u00FAsica\u003C/w\u003E": 413,
    "danza\u003C/w\u003E": 414,
    "\u2018\u003C/w\u003E": 415,
    "cuenta\u003C/w\u003E": 416,
    "i\u003C/w\u003E": 417,
    "\u201D\u003C/w\u003E": 418,
    "lleg": 419,
    "territorio\u003C/w\u003E": 420,
    "cru": 421,
    "a\u00F1o\u003C/w\u003E": 422,
    "origen\u003C/w\u003E": 423,
    "especies\u003C/w\u003E": 424,
    "abri": 425,
    "\u00EDan\u003C/w\u003E": 426,
    "norte\u003C/w\u003E": 427,
    "9\u003C/w\u003E": 428,
    "ubi": 429,
    "lug": 430,
    "lio\u003C/w\u003E": 431,
    "yo\u003C/w\u003E": 432,
    "embre\u003C/w\u003E": 433,
    "gui": 434,
    "correntino\u003C/w\u003E": 435,
    "brasi": 436,
    "x\u003C/w\u003E": 437,
    "no": 438,
    "inter": 439,
    "\u00F3ri": 440,
    "desarrol": 441,
    "merce": 442,
    "club": 443,
    "locali": 444,
    "lica\u003C/w\u003E": 445,
    "nombre\u003C/w\u003E": 446,
    "ge": 447,
    "espa\u00F1o": 448,
    "aj": 449,
    "coloni": 450,
    "\u00E1re": 451,
    "constru": 452,
    "almente\u003C/w\u003E": 453,
    "ho": 454,
    "provincias\u003C/w\u003E": 455,
    "serv": 456,
    "15": 457,
    "g\u00FC": 458,
    "cio\u003C/w\u003E": 459,
    "poblaci\u00F3n\u003C/w\u003E": 460,
    "\u00FAl": 461,
    "fueron\u003C/w\u003E": 462,
    "que\u00F1": 463,
    "\u00FAn\u003C/w\u003E": 464,
    "cciones\u003C/w\u003E": 465,
    "fir": 466,
    "cultura\u003C/w\u003E": 467,
    "mercedes\u003C/w\u003E": 468,
    "divi": 469,
    "propi": 470,
    "exten": 471,
    "realiz": 472,
    "jesu": 473,
    "hu": 474,
    "instru": 475,
    "capital\u003C/w\u003E": 476,
    "km\u003C/w\u003E": 477,
    "a\u00F1os\u003C/w\u003E": 478,
    "ego\u003C/w\u003E": 479,
    "puede\u003C/w\u003E": 480,
    "sub": 481,
    "vir": 482,
    "zaci\u00F3n\u003C/w\u003E": 483,
    "inten": 484,
    "erra\u003C/w\u003E": 485,
    "tica\u003C/w\u003E": 486,
    "hist": 487,
    "hist\u00F3ri": 488,
    "grande\u003C/w\u003E": 489,
    "nue": 490,
    "julio\u003C/w\u003E": 491,
    "influ": 492,
    "difi": 493,
    "trans": 494,
    "ped": 495,
    "cruz\u003C/w\u003E": 496,
    "t\u00F3": 497,
    "comp": 498,
    "et": 499,
    "sistema\u003C/w\u003E": 500,
    "zas\u003C/w\u003E": 501,
    "plata\u003C/w\u003E": 502,
    "p\u00FA": 503,
    "peque\u00F1": 504,
    "mismo\u003C/w\u003E": 505,
    "encuentra\u003C/w\u003E": 506,
    "inclu": 507,
    "10\u003C/w\u003E": 508,
    "da": 509,
    "impor": 510,
    "l\u00F3": 511,
    "lib": 512,
    "lugar\u003C/w\u003E": 513,
    "correntina\u003C/w\u003E": 514,
    "club\u003C/w\u003E": 515,
    "cido\u003C/w\u003E": 516,
    "blan": 517,
    "junto\u003C/w\u003E": 518,
    "p\u00FAb": 519,
    "ciudades\u003C/w\u003E": 520,
    "12\u003C/w\u003E": 521,
    "pueblo\u003C/w\u003E": 522,
    "arti": 523,
    "guaz": 524,
    "rec": 525,
    "aunque\u003C/w\u003E": 526,
    "\u00B0\u003C/w\u003E": 527,
    "he": 528,
    "estable": 529,
    "d\u00EDa\u003C/w\u003E": 530,
    "otro\u003C/w\u003E": 531,
    "tivas\u003C/w\u003E": 532,
    "depor": 533,
    "c\u00EDa\u003C/w\u003E": 534,
    "ay": 535,
    "diver": 536,
    "llas\u003C/w\u003E": 537,
    "activi": 538,
    "fiesta\u003C/w\u003E": 539,
    "\u00E9po": 540,
    "oeste\u003C/w\u003E": 541,
    "\u00EDas\u003C/w\u003E": 542,
    "influen": 543,
    "mis": 544,
    "g\u00FAn\u003C/w\u003E": 545,
    "z\u00F3\u003C/w\u003E": 546,
    "cuando\u003C/w\u003E": 547,
    "comien": 548,
    "otras\u003C/w\u003E": 549,
    "ticas\u003C/w\u003E": 550,
    "sido\u003C/w\u003E": 551,
    "correntinos\u003C/w\u003E": 552,
    "ario\u003C/w\u003E": 553,
    "tiene\u003C/w\u003E": 554,
    "cua": 555,
    "musical\u003C/w\u003E": 556,
    "aguas\u003C/w\u003E": 557,
    "munici": 558,
    "cultural\u003C/w\u003E": 559,
    "fuer": 560,
    "luego\u003C/w\u003E": 561,
    "y\u00FA\u003C/w\u003E": 562,
    "mili": 563,
    "\u00E1rea\u003C/w\u003E": 564,
    "cios\u003C/w\u003E": 565,
    "inde": 566,
    "fran": 567,
    "eje": 568,
    "ejecu": 569,
    "000\u003C/w\u003E": 570,
    "bien\u003C/w\u003E": 571,
    "consi": 572,
    "fec": 573,
    "actual\u003C/w\u003E": 574,
    "val": 575,
    "pueblos\u003C/w\u003E": 576,
    "amiento\u003C/w\u003E": 577,
    "pol": 578,
    "inte": 579,
    "dez\u003C/w\u003E": 580,
    "\u00AB\u003C/w\u003E": 581,
    "\u00BB\u003C/w\u003E": 582,
    "graf": 583,
    "debi": 584,
    "escu": 585,
    "otra\u003C/w\u003E": 586,
    "mite\u003C/w\u003E": 587,
    "c\u00F3\u003C/w\u003E": 588,
    "\u00E9n": 589,
    "gani": 590,
    "trav": 591,
    "trav\u00E9s\u003C/w\u003E": 592,
    "tiem": 593,
    "pa\u00ED": 594,
    "mayor\u003C/w\u003E": 595,
    "se\u00F1": 596,
    "etc\u003C/w\u003E": 597,
    "brasil\u003C/w\u003E": 598,
    "ya": 599,
    "puerto\u003C/w\u003E": 600,
    "geo": 601,
    "graf\u00EDa\u003C/w\u003E": 602,
    "agua\u003C/w\u003E": 603,
    "despu": 604,
    "despu\u00E9s\u003C/w\u003E": 605,
    "prote": 606,
    "espa\u00F1oles\u003C/w\u003E": 607,
    "be\u003C/w\u003E": 608,
    "16": 609,
    "dici": 610,
    "diciembre\u003C/w\u003E": 611,
    "caracter\u00ED": 612,
    "habitantes\u003C/w\u003E": 613,
    "d\u00E9": 614,
    "alta\u003C/w\u003E": 615,
    "dio\u003C/w\u003E": 616,
    "algunos\u003C/w\u003E": 617,
    "sa": 618,
    "edad\u003C/w\u003E": 619,
    "cuer": 620,
    "mart\u00ED": 621,
    "ocu": 622,
    "organi": 623,
    "apo": 624,
    "za": 625,
    "luci\u00F3n\u003C/w\u003E": 626,
    "182": 627,
    "\u00F1o\u003C/w\u003E": 628,
    "llev": 629,
    "fron": 630,
    "turismo\u003C/w\u003E": 631,
    "abril\u003C/w\u003E": 632,
    "p\u00FAblica\u003C/w\u003E": 633,
    "tarag\u00FC": 634,
    "\u00E9poca\u003C/w\u003E": 635,
    "guaz\u00FA\u003C/w\u003E": 636,
    "cir": 637,
    "seg\u00FAn\u003C/w\u003E": 638,
    "incluy": 639,
    "17": 640,
    "indu": 641,
    "\u00E1fi": 642,
    "situ": 643,
    "pedro\u003C/w\u003E": 644,
    "espa\u00F1a\u003C/w\u003E": 645,
    "zos\u003C/w\u003E": 646,
    "ol": 647,
    "tribu": 648,
    "pa\u00EDs\u003C/w\u003E": 649,
    "segun": 650,
    "dec": 651,
    "varias\u003C/w\u003E": 652,
    "tico\u003C/w\u003E": 653,
    "mientras\u003C/w\u003E": 654,
    "contra\u003C/w\u003E": 655,
    "dencia\u003C/w\u003E": 656,
    "indepen": 657,
    "fici": 658,
    "iz": 659,
    "izqui": 660,
    "izquier": 661,
    "xx\u003C/w\u003E": 662,
    "instrumentos\u003C/w\u003E": 663,
    "arag": 664,
    "arag\u00F3n\u003C/w\u003E": 665,
    "antigu": 666,
    "apro": 667,
    "\u00E1ndose\u003C/w\u003E": 668,
    "dios\u003C/w\u003E": 669,
    "toda\u003C/w\u003E": 670,
    "\u00FAni": 671,
    "barri": 672,
    "/\u003C/w\u003E": 673,
    "signi": 674,
    "signifi": 675,
    "est\u00E1n\u003C/w\u003E": 676,
    "xvi": 677,
    "intro": 678,
    "introdu": 679,
    "g\u00F3\u003C/w\u003E": 680,
    "f\u00ED": 681,
    "ita": 682,
    "cambi": 683,
    "\u00E1c": 684,
    "redu": 685,
    "hoy\u003C/w\u003E": 686,
    "llamado\u003C/w\u003E": 687,
    "embargo\u003C/w\u003E": 688,
    "mila": 689,
    "tiempo\u003C/w\u003E": 690,
    "movimi": 691,
    "sep": 692,
    "celeb": 693,
    "gas\u003C/w\u003E": 694,
    "quien\u003C/w\u003E": 695,
    "carlos\u003C/w\u003E": 696,
    "cuatro\u003C/w\u003E": 697,
    "g\u003C/w\u003E": 698,
    "all\u00ED\u003C/w\u003E": 699,
    "luc\u00EDa\u003C/w\u003E": 700,
    "blanco\u003C/w\u003E": 701,
    "antonio\u003C/w\u003E": 702,
    "tierra\u003C/w\u003E": 703,
    "observ": 704,
    "acorde": 705,
    "principal\u003C/w\u003E": 706,
    "88\u003C/w\u003E": 707,
    "\u00E1r": 708,
    "pueden\u003C/w\u003E": 709,
    "distintas\u003C/w\u003E": 710,
    "n\u00FA": 711,
    "tropi": 712,
    "tec": 713,
    "ii\u003C/w\u003E": 714,
    "construcci\u00F3n\u003C/w\u003E": 715,
    "euro": 716,
    "ig": 717,
    "industri": 718,
    "localidad\u003C/w\u003E": 719,
    "cabe": 720,
    "ci\u00F3\u003C/w\u003E": 721,
    "pci\u00F3n\u003C/w\u003E": 722,
    "cum": 723,
    "asunci\u00F3n\u003C/w\u003E": 724,
    "\u00E9l\u003C/w\u003E": 725,
    "tien": 726,
    "punto\u003C/w\u003E": 727,
    "cuya\u003C/w\u003E": 728,
    "cabil": 729,
    "cabildo\u003C/w\u003E": 730,
    "t\u00E9": 731,
    "rep\u00FAblica\u003C/w\u003E": 732,
    "ampli": 733,
    "conserv": 734,
    "constituy": 735,
    "aves\u003C/w\u003E": 736,
    "musicales\u003C/w\u003E": 737,
    "acorde\u00F3n\u003C/w\u003E": 738,
    "bel": 739,
    "aero": 740,
    "d\u00F3\u003C/w\u003E": 741,
    "puntas\u003C/w\u003E": 742,
    "tarag\u00FC\u00ED\u003C/w\u003E": 743,
    "\u00FAltimo\u003C/w\u003E": 744,
    "grandes\u003C/w\u003E": 745,
    "todos\u003C/w\u003E": 746,
    "encon": 747,
    "constituci\u00F3n\u003C/w\u003E": 748,
    "tud\u003C/w\u003E": 749,
    "clima\u003C/w\u003E": 750,
    "tropical\u003C/w\u003E": 751,
    "oc": 752,
    "l\u00EDmite\u003C/w\u003E": 753,
    "depar": 754,
    "arqui": 755,
    "arquitec": 756,
    "afir": 757,
    "vieron\u003C/w\u003E": 758,
    "vivi": 759,
    "desarrollo\u003C/w\u003E": 760,
    "gr\u00E1fi": 761,
    "porte\u003C/w\u003E": 762,
    "vez\u003C/w\u003E": 763,
    "virgen\u003C/w\u003E": 764,
    "fru": 765,
    "ye": 766,
    "d\u00ED": 767,
    "natural\u003C/w\u003E": 768,
    "continu": 769,
    "real\u003C/w\u003E": 770,
    "poder\u003C/w\u003E": 771,
    "ellos\u003C/w\u003E": 772,
    "cuerpo\u003C/w\u003E": 773,
    "200": 774,
    "11\u003C/w\u003E": 775,
    "itat\u00ED\u003C/w\u003E": 776,
    "superi": 777,
    "identi": 778,
    "llo\u003C/w\u003E": 779,
    "avi": 780,
    "popu": 781,
    "ga": 782,
    "mart\u00EDn\u003C/w\u003E": 783,
    "r\u00FA": 784,
    "europe": 785,
    "entonces\u003C/w\u003E": 786,
    "libres\u003C/w\u003E": 787,
    "direc": 788,
    "yape": 789,
    "yapey\u00FA\u003C/w\u003E": 790,
    "litoral\u003C/w\u003E": 791,
    "algunas\u003C/w\u003E": 792,
    "polca\u003C/w\u003E": 793,
    "danzas\u003C/w\u003E": 794,
    "ancho\u003C/w\u003E": 795,
    "fauna\u003C/w\u003E": 796,
    "\u00EA\u003C/w\u003E": 797,
    "zapa": 798,
    "1588\u003C/w\u003E": 799,
    "nordeste\u003C/w\u003E": 800,
    "municipi": 801,
    "\u00E1ndez\u003C/w\u003E": 802,
    "198": 803,
    "nomb": 804,
    "yos\u003C/w\u003E": 805,
    "jesu\u00ED": 806,
    "hist\u00F3rico\u003C/w\u003E": 807,
    "pie": 808,
    "barrios\u003C/w\u003E": 809,
    "tempera": 810,
    "14\u003C/w\u003E": 811,
    "influencia\u003C/w\u003E": 812,
    "altura\u003C/w\u003E": 813,
    "estruc": 814,
    "partir\u003C/w\u003E": 815,
    "crecimiento\u003C/w\u003E": 816,
    "obras\u003C/w\u003E": 817,
    "proye": 818,
    "lidad\u003C/w\u003E": 819,
    "vida\u003C/w\u003E": 820,
    "conce": 821,
    "buena\u003C/w\u003E": 822,
    "erras\u003C/w\u003E": 823,
    "d\u00E9cada\u003C/w\u003E": 824,
    "movimiento\u003C/w\u003E": 825,
    "diferentes\u003C/w\u003E": 826,
    "segunda\u003C/w\u003E": 827,
    "septiembre\u003C/w\u003E": 828,
    "actualmente\u003C/w\u003E": 829,
    "rit": 830,
    "posee\u003C/w\u003E": 831,
    "nivel\u003C/w\u003E": 832,
    "mpi": 833,
    "inici": 834,
    "brasile": 835,
    "jesuitas\u003C/w\u003E": 836,
    "principalmente\u003C/w\u003E": 837,
    "\u00F3r": 838,
    "r\u00E9\u003C/w\u003E": 839,
    "hab\u00EDa\u003C/w\u003E": 840,
    "183": 841,
    "caracter\u00EDsticas\u003C/w\u003E": 842,
    "negro\u003C/w\u003E": 843,
    "xix\u003C/w\u003E": 844,
    "flo": 845,
    "parque\u003C/w\u003E": 846,
    "\u0027\u003C/w\u003E": 847,
    "cier": 848,
    "zapate": 849,
    "admini": 850,
    "torres\u003C/w\u003E": 851,
    "50\u003C/w\u003E": 852,
    "actividad\u003C/w\u003E": 853,
    "stencia\u003C/w\u003E": 854,
    "naval\u003C/w\u003E": 855,
    "debido\u003C/w\u003E": 856,
    "confor": 857,
    "equi": 858,
    "dra\u003C/w\u003E": 859,
    "uso\u003C/w\u003E": 860,
    "196": 861,
    "b\u00E1": 862,
    "subtropical\u003C/w\u003E": 863,
    "invi": 864,
    "m\u00ED": 865,
    "%\u003C/w\u003E": 866,
    "misma\u003C/w\u003E": 867,
    "202": 868,
    "estilo\u003C/w\u003E": 869,
    "iglesi": 870,
    "sil": 871,
    "transporte\u003C/w\u003E": 872,
    "dif\u00ED": 873,
    "dif\u00EDci": 874,
    "comercial\u003C/w\u003E": 875,
    "distintos\u003C/w\u003E": 876,
    "30\u003C/w\u003E": 877,
    "reducciones\u003C/w\u003E": 878,
    "hecho\u003C/w\u003E": 879,
    "varios\u003C/w\u003E": 880,
    "orden\u003C/w\u003E": 881,
    "tuvo\u003C/w\u003E": 882,
    "inv": 883,
    "homb": 884,
    "numerosas\u003C/w\u003E": 885,
    "posici\u00F3n\u003C/w\u003E": 886,
    "existen\u003C/w\u003E": 887,
    "peque\u00F1a\u003C/w\u003E": 888,
    "actividades\u003C/w\u003E": 889,
    "partici": 890,
    "anza\u003C/w\u003E": 891,
    "tropas\u003C/w\u003E": 892,
    "econom\u00EDa\u003C/w\u003E": 893,
    "fern\u00E1ndez\u003C/w\u003E": 894,
    "revoluci\u00F3n\u003C/w\u003E": 895,
    "congreso\u003C/w\u003E": 896,
    "franci": 897,
    "francis": 898,
    "francisco\u003C/w\u003E": 899,
    "1821\u003C/w\u003E": 900,
    "torio\u003C/w\u003E": 901,
    "izquierda\u003C/w\u003E": 902,
    "ind\u00ED": 903,
    "super": 904,
    "fluvi": 905,
    "localidades\u003C/w\u003E": 906,
    "fabri": 907,
    "guar": 908,
    "erte\u003C/w\u003E": 909,
    "conjunto\u003C/w\u003E": 910,
    "urbano\u003C/w\u003E": 911,
    "is": 912,
    "acta\u003C/w\u003E": 913,
    "ferencia\u003C/w\u003E": 914,
    "idi": 915,
    "extensi\u00F3n\u003C/w\u003E": 916,
    "nueva\u003C/w\u003E": 917,
    "ley\u003C/w\u003E": 918,
    "tivamente\u003C/w\u003E": 919,
    "n\u00FAmero\u003C/w\u003E": 920,
    "anual\u003C/w\u003E": 921,
    "via\u003C/w\u003E": 922,
    "censo\u003C/w\u003E": 923,
    "departamento\u003C/w\u003E": 924,
    "27\u003C/w\u003E": 925,
    "31\u003C/w\u003E": 926,
    "xviii\u003C/w\u003E": 927,
    "materi": 928,
    "material\u003C/w\u003E": 929,
    "25\u003C/w\u003E": 930,
    "elev": 931,
    "ri\u00F3\u003C/w\u003E": 932,
    "aveni": 933,
    "ez\u003C/w\u003E": 934,
    "ormente\u003C/w\u003E": 935,
    "l\u00F3pez\u003C/w\u003E": 936,
    "vivien": 937,
    "viviendas\u003C/w\u003E": 938,
    "falta\u003C/w\u003E": 939,
    "\u00E1reas\u003C/w\u003E": 940,
    "car\u00E1c": 941,
    "car\u00E1cter\u003C/w\u003E": 942,
    "principales\u003C/w\u003E": 943,
    "efec": 944,
    "ctos\u003C/w\u003E": 945,
    "bus": 946,
    "cuen": 947,
    "p\u00ED\u003C/w\u003E": 948,
    "m\u00F3\u003C/w\u003E": 949,
    "importante\u003C/w\u003E": 950,
    "colonial\u003C/w\u003E": 951,
    "mayor\u00EDa\u003C/w\u003E": 952,
    "famili": 953,
    "cat\u00F3": 954,
    "ev": 955,
    "erto\u003C/w\u003E": 956,
    "estructura\u003C/w\u003E": 957,
    "mica\u003C/w\u003E": 958,
    "producci\u00F3n\u003C/w\u003E": 959,
    "algo": 960,
    "at": 961,
    "deportivo\u003C/w\u003E": 962,
    "federal\u003C/w\u003E": 963,
    "practi": 964,
    "veces\u003C/w\u003E": 965,
    "s\u00ED": 966,
    "\u00B2\u003C/w\u003E": 967,
    "proveni": 968,
    "charr\u00FA": 969,
    "p\u00E1": 970,
    "oriental\u003C/w\u003E": 971,
    "28\u003C/w\u003E": 972,
    "virre": 973,
    "brasile\u00F1": 974,
    "conf": 975,
    "confli": 976,
    "propio\u003C/w\u003E": 977,
    "derro": 978,
    "vas\u003C/w\u003E": 979,
    "ind\u00EDgenas\u003C/w\u003E": 980,
    "monte\u003C/w\u003E": 981,
    "ba\u00F1ados\u003C/w\u003E": 982,
    "media\u003C/w\u003E": 983,
    "respon": 984,
    "hab\u003C/w\u003E": 985,
    "coreo": 986,
    "diversos\u003C/w\u003E": 987,
    "culturales\u003C/w\u003E": 988,
    "creaci\u00F3n\u003C/w\u003E": 989,
    "incor": 990,
    "modo\u003C/w\u003E": 991,
    "embar": 992,
    "variedad\u003C/w\u003E": 993,
    "reintrodu": 994,
    "embal": 995,
    "colonia\u003C/w\u003E": 996,
    "vegetaci\u00F3n\u003C/w\u003E": 997,
    "baile\u003C/w\u003E": 998,
    "cintura\u003C/w\u003E": 999,
    "aproximadamente\u003C/w\u003E": 1000,
    "belgrano\u003C/w\u003E": 1001,
    "ruta\u003C/w\u003E": 1002,
    "v\u00EDa\u003C/w\u003E": 1003,
    "aeropuerto\u003C/w\u003E": 1004,
    "municipio\u003C/w\u003E": 1005,
    "geograf\u00EDa\u003C/w\u003E": 1006,
    "bautista\u003C/w\u003E": 1007,
    "agre": 1008,
    "todas\u003C/w\u003E": 1009,
    "actualidad\u003C/w\u003E": 1010,
    "servicios\u003C/w\u003E": 1011,
    "llu": 1012,
    "particular\u003C/w\u003E": 1013,
    "acuerdo\u003C/w\u003E": 1014,
    "ficaci\u00F3n\u003C/w\u003E": 1015,
    "\u00E1tica\u003C/w\u003E": 1016,
    "aga\u003C/w\u003E": 1017,
    "importantes\u003C/w\u003E": 1018,
    "institu": 1019,
    "ceder\u003C/w\u003E": 1020,
    "dif\u00EDcil\u003C/w\u003E": 1021,
    "porque\u003C/w\u003E": 1022,
    "\u00FAltimos\u003C/w\u003E": 1023,
    "concepci\u00F3n\u003C/w\u003E": 1024,
    "lograr\u003C/w\u003E": 1025,
    "p\u00F3": 1026,
    "tierras\u003C/w\u003E": 1027,
    "nave": 1028,
    "jesu\u00EDticas\u003C/w\u003E": 1029,
    "r\u00E9": 1030,
    "nunca\u003C/w\u003E": 1031,
    "ca\u00ED": 1032,
    "sociedad\u003C/w\u003E": 1033,
    "indios\u003C/w\u003E": 1034,
    "odo\u003C/w\u003E": 1035,
    "180": 1036,
    "identidad\u003C/w\u003E": 1037,
    "ritmo\u003C/w\u003E": 1038,
    "dica\u003C/w\u003E": 1039,
    "d\u00F3n\u003C/w\u003E": 1040,
    "popular\u003C/w\u003E": 1041,
    "superior\u003C/w\u003E": 1042,
    "arios\u003C/w\u003E": 1043,
    "jurisdi": 1044,
    "otor": 1045,
    "alianza\u003C/w\u003E": 1046,
    "virreinato\u003C/w\u003E": 1047,
    "aut\u00F3": 1048,
    "independi": 1049,
    "ferr\u00E9\u003C/w\u003E": 1050,
    "defini": 1051,
    "ben": 1052,
    "guerra\u003C/w\u003E": 1053,
    "ubica\u003C/w\u003E": 1054,
    "fluvial\u003C/w\u003E": 1055,
    "dro\u003C/w\u003E": 1056,
    "m\u00FAsicos\u003C/w\u003E": 1057,
    "be": 1058,
    "ambos\u003C/w\u003E": 1059,
    "v\u00ED": 1060,
    "brazo\u003C/w\u003E": 1061,
    "rica\u003C/w\u003E": 1062,
    "gregori": 1063,
    "hume": 1064,
    "surub": 1065,
    "embalsados\u003C/w\u003E": 1066,
    "vu": 1067,
    "arpa\u003C/w\u003E": 1068,
    "somb": 1069,
    "paiu": 1070,
    "paiubre\u003C/w\u003E": 1071,
    "orillas\u003C/w\u003E": 1072,
    "encia\u003C/w\u003E": 1073,
    "desembocadura\u003C/w\u003E": 1074,
    "univer": 1075,
    "cabral\u003C/w\u003E": 1076,
    "mediados\u003C/w\u003E": 1077,
    "siti": 1078,
    "fuertes\u003C/w\u003E": 1079,
    "mantilla\u003C/w\u003E": 1080,
    "interpretaci\u00F3n\u003C/w\u003E": 1081,
    "uni\u00F3n\u003C/w\u003E": 1082,
    "llamaban\u003C/w\u003E": 1083,
    "inci": 1084,
    "opor": 1085,
    "piedra\u003C/w\u003E": 1086,
    "encontrar": 1087,
    "oficial\u003C/w\u003E": 1088,
    "40\u003C/w\u003E": 1089,
    "plo\u003C/w\u003E": 1090,
    "seca\u003C/w\u003E": 1091,
    "precipitaciones\u003C/w\u003E": 1092,
    "invierno\u003C/w\u003E": 1093,
    "m\u00E1": 1094,
    "mm\u003C/w\u003E": 1095,
    "2022\u003C/w\u003E": 1096,
    "cilla\u003C/w\u003E": 1097,
    "gonz": 1098,
    "gonz\u00E1": 1099,
    "gonz\u00E1lez\u003C/w\u003E": 1100,
    "comienza\u003C/w\u003E": 1101,
    "afirma\u003C/w\u003E": 1102,
    "cidos\u003C/w\u003E": 1103,
    "industrial\u003C/w\u003E": 1104,
    "197": 1105,
    "expan": 1106,
    "rse\u003C/w\u003E": 1107,
    "debe\u003C/w\u003E": 1108,
    "acceder\u003C/w\u003E": 1109,
    "situaci\u00F3n\u003C/w\u003E": 1110,
    "muchas\u003C/w\u003E": 1111,
    "mediante\u003C/w\u003E": 1112,
    "sebasti": 1113,
    "sebasti\u00E1n\u003C/w\u003E": 1114,
    "permane": 1115,
    "extien": 1116,
    "cuyo\u003C/w\u003E": 1117,
    "curso\u003C/w\u003E": 1118,
    "criol": 1119,
    "criollos\u003C/w\u003E": 1120,
    "dic": 1121,
    "milagro\u003C/w\u003E": 1122,
    "tarde\u003C/w\u003E": 1123,
    "vecinos\u003C/w\u003E": 1124,
    "total\u003C/w\u003E": 1125,
    "inf": 1126,
    "ple": 1127,
    "per\u00EDodo\u003C/w\u003E": 1128,
    "quienes\u003C/w\u003E": 1129,
    "ing": 1130,
    "igual\u003C/w\u003E": 1131,
    "cat\u00F3lica\u003C/w\u003E": 1132,
    "evan": 1133,
    "r\u00F3\u003C/w\u003E": 1134,
    "se\u00F1ora\u003C/w\u003E": 1135,
    "13\u003C/w\u003E": 1136,
    "dia\u003C/w\u003E": 1137,
    "jes": 1138,
    "jes\u00FA": 1139,
    "jes\u00FAs\u003C/w\u003E": 1140,
    "\u00E1l": 1141,
    "bri": 1142,
    "ble\u003C/w\u003E": 1143,
    "algod\u00F3n\u003C/w\u003E": 1144,
    "tbol\u003C/w\u003E": 1145,
    "cubier": 1146,
    "pul": 1147,
    "ondo\u003C/w\u003E": 1148,
    "charr\u00FAas\u003C/w\u003E": 1149,
    "p\u00E1mpi": 1150,
    "qued\u00F3\u003C/w\u003E": 1151,
    "territorios\u003C/w\u003E": 1152,
    "fa": 1153,
    "verdadero\u003C/w\u003E": 1154,
    "brasile\u00F1os\u003C/w\u003E": 1155,
    "envi": 1156,
    "milicias\u003C/w\u003E": 1157,
    "comienzos\u003C/w\u003E": 1158,
    "independencia\u003C/w\u003E": 1159,
    "formar\u003C/w\u003E": 1160,
    "junta\u003C/w\u003E": 1161,
    "dipu": 1162,
    "muchos\u003C/w\u003E": 1163,
    "abierto\u003C/w\u003E": 1164,
    "fij": 1165,
    "partido\u003C/w\u003E": 1166,
    "ram\u00F3n\u003C/w\u003E": 1167,
    "provinciales\u003C/w\u003E": 1168,
    "fronteras\u003C/w\u003E": 1169,
    "c\u00F3": 1170,
    "emb": 1171,
    "amplia\u003C/w\u003E": 1172,
    "lico\u003C/w\u003E": 1173,
    "conec": 1174,
    "g\u00EDa\u003C/w\u003E": 1175,
    "primavera\u003C/w\u003E": 1176,
    "tom\u00E9\u003C/w\u003E": 1177,
    "esquina\u003C/w\u003E": 1178,
    "[\u003C/w\u003E": 1179,
    "requeri": 1180,
    "requerida\u003C/w\u003E": 1181,
    "]\u003C/w\u003E": 1182,
    "grupo\u003C/w\u003E": 1183,
    "valse": 1184,
    "valseado\u003C/w\u003E": 1185,
    "obra\u003C/w\u003E": 1186,
    "l\u00E1": 1187,
    "interior\u003C/w\u003E": 1188,
    "curuz": 1189,
    "curuz\u00FA\u003C/w\u003E": 1190,
    "variada\u003C/w\u003E": 1191,
    "llamada\u003C/w\u003E": 1192,
    "municipal\u003C/w\u003E": 1193,
    "correspon": 1194,
    "presidente\u003C/w\u003E": 1195,
    "posibi": 1196,
    "principi": 1197,
    "sidad\u003C/w\u003E": 1198,
    "\u00AA\u003C/w\u003E": 1199,
    "flota\u003C/w\u003E": 1200,
    "nico\u003C/w\u003E": 1201,
    "hab\u00EDan\u003C/w\u003E": 1202,
    "villa\u003C/w\u003E": 1203,
    "autonomista\u003C/w\u003E": 1204,
    "apoyo\u003C/w\u003E": 1205,
    "a\u00FAn\u003C/w\u003E": 1206,
    "ecosistema\u003C/w\u003E": 1207,
    "hy": 1208,
    "hyd": 1209,
    "elta\u003C/w\u003E": 1210,
    "uti": 1211,
    "patrimonio\u003C/w\u003E": 1212,
    "dido\u003C/w\u003E": 1213,
    "observar\u003C/w\u003E": 1214,
    "exter": 1215,
    "guitarra\u003C/w\u003E": 1216,
    "padre\u003C/w\u003E": 1217,
    "instrumento\u003C/w\u003E": 1218,
    "bailar\u00ED": 1219,
    "bailar\u00EDn\u003C/w\u003E": 1220,
    "zapateo\u003C/w\u003E": 1221,
    "cinto\u003C/w\u003E": 1222,
    "atuendo\u003C/w\u003E": 1223,
    "sombrero\u003C/w\u003E": 1224,
    "rn": 1225,
    "rn12\u003C/w\u003E": 1226,
    "surub\u00ED\u003C/w\u003E": 1227,
    "salud\u003C/w\u003E": 1228,
    "barran": 1229,
    "miles\u003C/w\u003E": 1230,
    "islas\u003C/w\u003E": 1231,
    "sitio\u003C/w\u003E": 1232,
    "historiador\u003C/w\u003E": 1233,
    "pr\u00F3": 1234,
    "poblado\u003C/w\u003E": 1235,
    "asentamientos\u003C/w\u003E": 1236,
    "llamados\u003C/w\u003E": 1237,
    "t\u00E1\u003C/w\u003E": 1238,
    "peque\u00F1os\u003C/w\u003E": 1239,
    "acep": 1240,
    "ido\u003C/w\u003E": 1241,
    "u\u003C/w\u003E": 1242,
    "arroyo\u003C/w\u003E": 1243,
    "titud\u003C/w\u003E": 1244,
    "ejemplo\u003C/w\u003E": 1245,
    "199": 1246,
    "representa\u003C/w\u003E": 1247,
    "23\u003C/w\u003E": 1248,
    "frente\u003C/w\u003E": 1249,
    "corre": 1250,
    "construi": 1251,
    "scri": 1252,
    "alre": 1253,
    "alrede": 1254,
    "edificios\u003C/w\u003E": 1255,
    "aspe": 1256,
    "teniente\u003C/w\u003E": 1257,
    "gr\u00E1fica\u003C/w\u003E": 1258,
    "rode": 1259,
    "roton": 1260,
    "rotonda\u003C/w\u003E": 1261,
    "\u00E9ndose\u003C/w\u003E": 1262,
    "disco": 1263,
    "avenidas\u003C/w\u003E": 1264,
    "encabe": 1265,
    "abor\u00EDgenes\u003C/w\u003E": 1266,
    "empresa\u003C/w\u003E": 1267,
    "mendo": 1268,
    "mendoza\u003C/w\u003E": 1269,
    "hacerlo\u003C/w\u003E": 1270,
    "cumpli": 1271,
    "capitu": 1272,
    "capitulaciones\u003C/w\u003E": 1273,
    "permaneci\u00F3\u003C/w\u003E": 1274,
    "aje\u003C/w\u003E": 1275,
    "\u00E9c": 1276,
    "form\u00F3\u003C/w\u003E": 1277,
    "escala\u003C/w\u003E": 1278,
    "cambio\u003C/w\u003E": 1279,
    "navegaci\u00F3n\u003C/w\u003E": 1280,
    "terreno\u003C/w\u003E": 1281,
    "vecina\u003C/w\u003E": 1282,
    "lengu": 1283,
    "iglesia\u003C/w\u003E": 1284,
    "di\u00F3\u003C/w\u003E": 1285,
    "esc": 1286,
    "lavos\u003C/w\u003E": 1287,
    "negros\u003C/w\u003E": 1288,
    "adqui": 1289,
    "mismos\u003C/w\u003E": 1290,
    "\u00E9t": 1291,
    "resul": 1292,
    "defen": 1293,
    "culto\u003C/w\u003E": 1294,
    "art\u00ED": 1295,
    "ferenci": 1296,
    "respecto\u003C/w\u003E": 1297,
    "24\u003C/w\u003E": 1298,
    "nombr\u00F3\u003C/w\u003E": 1299,
    "60\u003C/w\u003E": 1300,
    "legis": 1301,
    "estudi": 1302,
    "formaci\u00F3n\u003C/w\u003E": 1303,
    "priv": 1304,
    "muse": 1305,
    "luis\u003C/w\u003E": 1306,
    "rique": 1307,
    "siguientes\u003C/w\u003E": 1308,
    "vals\u003C/w\u003E": 1309,
    "gico\u003C/w\u003E": 1310,
    "atenci\u00F3n\u003C/w\u003E": 1311,
    "b\u00E1s": 1312,
    "menci": 1313,
    "formas\u003C/w\u003E": 1314,
    "hist\u00F3ricamente\u003C/w\u003E": 1315,
    "tipo\u003C/w\u003E": 1316,
    "ocupa\u003C/w\u003E": 1317,
    "provenientes\u003C/w\u003E": 1318,
    "formando\u003C/w\u003E": 1319,
    "marzo\u003C/w\u003E": 1320,
    "r\u00F3": 1321,
    "nea\u003C/w\u003E": 1322,
    "pobladores\u003C/w\u003E": 1323,
    "cuyos\u003C/w\u003E": 1324,
    "compa\u00F1\u00EDa\u003C/w\u003E": 1325,
    "\u00E9r": 1326,
    "tucum\u00E1n\u003C/w\u003E": 1327,
    "intendencia\u003C/w\u003E": 1328,
    "1810\u003C/w\u003E": 1329,
    "recibi": 1330,
    "j\u00F3": 1331,
    "j\u00F3venes\u003C/w\u003E": 1332,
    "1814\u003C/w\u003E": 1333,
    "respec": 1334,
    "historia\u003C/w\u003E": 1335,
    "ram\u00EDrez\u003C/w\u003E": 1336,
    "comandante\u003C/w\u003E": 1337,
    "campa\u00F1": 1338,
    "firmado\u003C/w\u003E": 1339,
    "ofici": 1340,
    "jas\u003C/w\u003E": 1341,
    "frontera\u003C/w\u003E": 1342,
    "cerca\u003C/w\u003E": 1343,
    "52\u003C/w\u003E": 1344,
    "superfici": 1345,
    "superficie\u003C/w\u003E": 1346,
    "extensa\u003C/w\u003E": 1347,
    "posible\u003C/w\u003E": 1348,
    "c\u00ED": 1349,
    "yacy": 1350,
    "yacyret\u00E1\u003C/w\u003E": 1351,
    "p\u00E9\u003C/w\u003E": 1352,
    "ambi": 1353,
    "represa\u003C/w\u003E": 1354,
    "fuente\u003C/w\u003E": 1355,
    "fol": 1356,
    "cordero\u003C/w\u003E": 1357,
    "autor\u003C/w\u003E": 1358,
    "bailarines\u003C/w\u003E": 1359,
    "ra\u00ED": 1360,
    "autores\u003C/w\u003E": 1361,
    "eu": 1362,
    "teatro\u003C/w\u003E": 1363,
    "cuati\u00E1\u003C/w\u003E": 1364,
    "permite\u003C/w\u003E": 1365,
    "regional\u003C/w\u003E": 1366,
    "conse": 1367,
    "santia": 1368,
    "santiago\u003C/w\u003E": 1369,
    "obj": 1370,
    "partes\u003C/w\u003E": 1371,
    "principios\u003C/w\u003E": 1372,
    "azu": 1373,
    "mundo\u003C/w\u003E": 1374,
    "puertos\u003C/w\u003E": 1375,
    "importan": 1376,
    "importancia\u003C/w\u003E": 1377,
    "arquitect\u00F3": 1378,
    "arquitect\u00F3nico\u003C/w\u003E": 1379,
    "influenci": 1380,
    "nutri": 1381,
    "zo": 1382,
    "v\u003C/w\u003E": 1383,
    "grosso\u003C/w\u003E": 1384,
    "timb": 1385,
    "significa\u003C/w\u003E": 1386,
    "exac": 1387,
    "propiamente\u003C/w\u003E": 1388,
    "dieron\u003C/w\u003E": 1389,
    "p\u003C/w\u003E": 1390,
    "ubicada\u003C/w\u003E": 1391,
    "cinco\u003C/w\u003E": 1392,
    "humedal\u003C/w\u003E": 1393,
    "carpin": 1394,
    "carpincho\u003C/w\u003E": 1395,
    "collar\u003C/w\u003E": 1396,
    "gida\u003C/w\u003E": 1397,
    "considera\u003C/w\u003E": 1398,
    "sea\u003C/w\u003E": 1399,
    "extiende\u003C/w\u003E": 1400,
    "recomendable\u003C/w\u003E": 1401,
    "proyecto\u003C/w\u003E": 1402,
    "aloj": 1403,
    "conservaci\u00F3n\u003C/w\u003E": 1404,
    "viento\u003C/w\u003E": 1405,
    "b\u00FA\u003C/w\u003E": 1406,
    "flau": 1407,
    "bailar\u003C/w\u003E": 1408,
    "reina\u003C/w\u003E": 1409,
    "bandone": 1410,
    "siempre\u003C/w\u003E": 1411,
    "izquierdo\u003C/w\u003E": 1412,
    "suj": 1413,
    "cent\u00EDmetros\u003C/w\u003E": 1414,
    "gregoria\u003C/w\u003E": 1415,
    "sarmi": 1416,
    "sarmiento\u003C/w\u003E": 1417,
    "econ": 1418,
    "econ\u00F3": 1419,
    "hom\u00F3": 1420,
    "antigua\u003C/w\u003E": 1421,
    "arri": 1422,
    "arriba\u003C/w\u003E": 1423,
    "vecinas\u003C/w\u003E": 1424,
    "pind\u00F3\u003C/w\u003E": 1425,
    "referencia\u003C/w\u003E": 1426,
    "marcada\u003C/w\u003E": 1427,
    "proteger\u003C/w\u003E": 1428,
    "idioma\u003C/w\u003E": 1429,
    "florencio\u003C/w\u003E": 1430,
    "vocablo\u003C/w\u003E": 1431,
    "\u00E1rboles\u003C/w\u003E": 1432,
    "poblaciones\u003C/w\u003E": 1433,
    "peque\u00F1as\u003C/w\u003E": 1434,
    "cui": 1435,
    "coinci": 1436,
    "costum": 1437,
    "recibe\u003C/w\u003E": 1438,
    "altos\u003C/w\u003E": 1439,
    "antiguo\u003C/w\u003E": 1440,
    "cauce\u003C/w\u003E": 1441,
    "poncho\u003C/w\u003E": 1442,
    "producen\u003C/w\u003E": 1443,
    "inundaciones\u003C/w\u003E": 1444,
    "formaciones\u003C/w\u003E": 1445,
    "buen\u003C/w\u003E": 1446,
    "t\u00EDpi": 1447,
    "21\u003C/w\u003E": 1448,
    "octu": 1449,
    "octubre\u003C/w\u003E": 1450,
    "lluvia\u003C/w\u003E": 1451,
    "h\u00FA": 1452,
    "h\u00FAme": 1453,
    "h\u00FAmedo\u003C/w\u003E": 1454,
    "46\u003C/w\u003E": 1455,
    "casco\u003C/w\u003E": 1456,
    "arquitectura\u003C/w\u003E": 1457,
    "construcciones\u003C/w\u003E": 1458,
    "mantuvieron\u003C/w\u003E": 1459,
    "iglesias\u003C/w\u003E": 1460,
    "aspecto\u003C/w\u003E": 1461,
    "ctiva\u003C/w\u003E": 1462,
    "l\u00EDmi": 1463,
    "l\u00EDmites\u003C/w\u003E": 1464,
    "posteriormente\u003C/w\u003E": 1465,
    "comenz\u00F3\u003C/w\u003E": 1466,
    "ejecutar\u003C/w\u003E": 1467,
    "1000\u003C/w\u003E": 1468,
    "expansi\u00F3n\u003C/w\u003E": 1469,
    "dificul": 1470,
    "all\u00E1\u003C/w\u003E": 1471,
    "cercan": 1472,
    "mercado\u003C/w\u003E": 1473,
    "pub": 1474,
    "comunidad\u003C/w\u003E": 1475,
    "toda": 1476,
    "todav\u00EDa\u003C/w\u003E": 1477,
    "alcan": 1478,
    "cuenca\u003C/w\u003E": 1479,
    "auxi": 1480,
    "alonso\u003C/w\u003E": 1481,
    "tup\u00ED\u003C/w\u003E": 1482,
    "arias\u003C/w\u003E": 1483,
    "sigui\u00F3\u003C/w\u003E": 1484,
    "viaje\u003C/w\u003E": 1485,
    "mejor\u003C/w\u003E": 1486,
    "peculi": 1487,
    "peculiar\u003C/w\u003E": 1488,
    "lengua\u003C/w\u003E": 1489,
    "provoc\u00F3\u003C/w\u003E": 1490,
    "enf": 1491,
    "enfrentami": 1492,
    "enfrentamientos\u003C/w\u003E": 1493,
    "c\u00E9": 1494,
    "milagros\u003C/w\u003E": 1495,
    "y\u00F3\u003C/w\u003E": 1496,
    "campo\u003C/w\u003E": 1497,
    "ir\u003C/w\u003E": 1498,
    "ca\u00EDda\u003C/w\u003E": 1499,
    "efectu": 1500,
    "idos\u003C/w\u003E": 1501,
    "contaba\u003C/w\u003E": 1502,
    "esclavos\u003C/w\u003E": 1503,
    "\u00E9tni": 1504,
    "fusi\u00F3n\u003C/w\u003E": 1505,
    "indistin": 1506,
    "indistintamente\u003C/w\u003E": 1507,
    "mucho\u003C/w\u003E": 1508,
    "libertad\u003C/w\u003E": 1509,
    "2008\u003C/w\u003E": 1510,
    "religi\u00F3n\u003C/w\u003E": 1511,
    "aniver": 1512,
    "aniversario\u003C/w\u003E": 1513,
    "oportuni": 1514,
    "hombres\u003C/w\u003E": 1515,
    "sede\u003C/w\u003E": 1516,
    "pertene": 1517,
    "numerosos\u003C/w\u003E": 1518,
    "superiores\u003C/w\u003E": 1519,
    "museo\u003C/w\u003E": 1520,
    "roch\u003C/w\u003E": 1521,
    "tus\u003C/w\u003E": 1522,
    "infra": 1523,
    "infraestructura\u003C/w\u003E": 1524,
    "idad\u003C/w\u003E": 1525,
    "teniendo\u003C/w\u003E": 1526,
    "personal\u003C/w\u003E": 1527,
    "campe": 1528,
    "2016\u003C/w\u003E": 1529,
    "jue": 1530,
    "qu\u00E9\u003C/w\u003E": 1531,
    "cubierta\u003C/w\u003E": 1532,
    "cic": 1533,
    "acu\u00E1": 1534,
    "mauricio\u003C/w\u003E": 1535,
    "rue": 1536,
    "gular\u003C/w\u003E": 1537,
    "anteriores\u003C/w\u003E": 1538,
    "auto": 1539,
    "poblada\u003C/w\u003E": 1540,
    "confederaci\u00F3n\u003C/w\u003E": 1541,
    "territorial\u003C/w\u003E": 1542,
    "producto\u003C/w\u003E": 1543,
    "servicio\u003C/w\u003E": 1544,
    "rey\u003C/w\u003E": 1545,
    "err\u00F3": 1546,
    "iniciales\u003C/w\u003E": 1547,
    "amerindia\u003C/w\u003E": 1548,
    "ticos\u003C/w\u003E": 1549,
    "mburu": 1550,
    "r\u00E9gimen\u003C/w\u003E": 1551,
    "expul": 1552,
    "asignada\u003C/w\u003E": 1553,
    "dividida\u003C/w\u003E": 1554,
    "sublev": 1555,
    "sublevaci\u00F3n\u003C/w\u003E": 1556,
    "modifi": 1557,
    "dencias\u003C/w\u003E": 1558,
    "clara\u003C/w\u003E": 1559,
    "ali\u00F3\u003C/w\u003E": 1560,
    "m\u00E9n": 1561,
    "m\u00E9ndez\u003C/w\u003E": 1562,
    "declar\u00F3\u003C/w\u003E": 1563,
    "director\u003C/w\u003E": 1564,
    "supremo\u003C/w\u003E": 1565,
    "dispuso\u003C/w\u003E": 1566,
    "conservan\u003C/w\u003E": 1567,
    "memoria\u003C/w\u003E": 1568,
    "representantes\u003C/w\u003E": 1569,
    "independientes\u003C/w\u003E": 1570,
    "derrota\u003C/w\u003E": 1571,
    "entrerri": 1572,
    "carriego\u003C/w\u003E": 1573,
    "directorio\u003C/w\u003E": 1574,
    "porte": 1575,
    "porte\u00F1o\u003C/w\u003E": 1576,
    "atienza\u003C/w\u003E": 1577,
    "conflicto\u003C/w\u003E": 1578,
    "armas\u003C/w\u003E": 1579,
    "etapa\u003C/w\u003E": 1580,
    "benj": 1581,
    "paraguayas\u003C/w\u003E": 1582,
    "s\u00EDm": 1583,
    "mitre\u003C/w\u003E": 1584,
    "ty\u003C/w\u003E": 1585,
    "bandera\u003C/w\u003E": 1586,
    "blanca\u003C/w\u003E": 1587,
    "creada\u003C/w\u003E": 1588,
    "adop": 1589,
    "guay": 1590,
    "arroyos\u003C/w\u003E": 1591,
    "alto\u003C/w\u003E": 1592,
    "\u2032\u003C/w\u003E": 1593,
    "\u2033\u003C/w\u003E": 1594,
    "\uFEFF\u003C/w\u003E": 1595,
    "cuyas\u003C/w\u003E": 1596,
    "hid": 1597,
    "hidro": 1598,
    "gr\u00E1fico\u003C/w\u003E": 1599,
    "var\u00EDa\u003C/w\u003E": 1600,
    "claramente\u003C/w\u003E": 1601,
    "conver": 1602,
    "c\u00EDtri": 1603,
    "c\u00EDtricos\u003C/w\u003E": 1604,
    "suelo\u003C/w\u003E": 1605,
    "miri": 1606,
    "miri\u00F1": 1607,
    "miri\u00F1ay\u003C/w\u003E": 1608,
    "oto": 1609,
    "oto\u00F1o\u003C/w\u003E": 1610,
    "anuales\u003C/w\u003E": 1611,
    "sudoeste\u003C/w\u003E": 1612,
    "causa\u003C/w\u003E": 1613,
    "dri": 1614,
    "48\u003C/w\u003E": 1615,
    "37\u003C/w\u003E": 1616,
    "europeas\u003C/w\u003E": 1617,
    "osval": 1618,
    "osvaldo\u003C/w\u003E": 1619,
    "premio\u003C/w\u003E": 1620,
    "tradicional\u003C/w\u003E": 1621,
    "muerte\u003C/w\u003E": 1622,
    "david\u003C/w\u003E": 1623,
    "mart\u00EDnez\u003C/w\u003E": 1624,
    "madariaga\u003C/w\u003E": 1625,
    "alberto\u003C/w\u003E": 1626,
    "sito\u003C/w\u003E": 1627,
    "grupos\u003C/w\u003E": 1628,
    "exponentes\u003C/w\u003E": 1629,
    "g\u00F3": 1630,
    "g\u00F3mez\u003C/w\u003E": 1631,
    "olivera\u003C/w\u003E": 1632,
    "diversas\u003C/w\u003E": 1633,
    "americano\u003C/w\u003E": 1634,
    "var\u00EDan\u003C/w\u003E": 1635,
    "forman\u003C/w\u003E": 1636,
    "diputados\u003C/w\u003E": 1637,
    "diente\u003C/w\u003E": 1638,
    "integrado\u003C/w\u003E": 1639,
    "exp": 1640,
    "tuvieron\u003C/w\u003E": 1641,
    "parques\u003C/w\u003E": 1642,
    "naturaleza\u003C/w\u003E": 1643,
    "sir": 1644,
    "mercosur\u003C/w\u003E": 1645,
    "comercio\u003C/w\u003E": 1646,
    "propia\u003C/w\u003E": 1647,
    "barcos\u003C/w\u003E": 1648,
    "aut\u00F3c": 1649,
    "tronco\u003C/w\u003E": 1650,
    "pr\u00E1c": 1651,
    "h\u00E1": 1652,
    "etni": 1653,
    "familia\u003C/w\u003E": 1654,
    "cabeza\u003C/w\u003E": 1655,
    "\u00FAes\u003C/w\u003E": 1656,
    "miti": 1657,
    "religioso\u003C/w\u003E": 1658,
    "longi": 1659,
    "ki": 1660,
    "kil\u00F3": 1661,
    "kil\u00F3metros\u003C/w\u003E": 1662,
    "\u00E9ste\u003C/w\u003E": 1663,
    "tareas\u003C/w\u003E": 1664,
    "inmedi": 1665,
    "reem": 1666,
    "queb": 1667,
    "\u00E1ndolo\u003C/w\u003E": 1668,
    "acceso\u003C/w\u003E": 1669,
    "ciervo\u003C/w\u003E": 1670,
    "cus\u003C/w\u003E": 1671,
    "overo\u003C/w\u003E": 1672,
    "recientemente\u003C/w\u003E": 1673,
    "habr\u00EDa\u003C/w\u003E": 1674,
    "firme\u003C/w\u003E": 1675,
    "siglos\u003C/w\u003E": 1676,
    "eco": 1677,
    "portales\u003C/w\u003E": 1678,
    "posteriores\u003C/w\u003E": 1679,
    "2015\u003C/w\u003E": 1680,
    "g\u00E9nero\u003C/w\u003E": 1681,
    "\u00F1an": 1682,
    "anfi": 1683,
    "exterminado\u003C/w\u003E": 1684,
    "of": 1685,
    "propios\u003C/w\u003E": 1686,
    "fortale": 1687,
    "escuela\u003C/w\u003E": 1688,
    "aguj": 1689,
    "agujeros\u003C/w\u003E": 1690,
    "fuelle\u003C/w\u003E": 1691,
    "bandone\u00F3n\u003C/w\u003E": 1692,
    "hombro\u003C/w\u003E": 1693,
    "rodi": 1694,
    "bombacha\u003C/w\u003E": 1695,
    "pa\u00F1u": 1696,
    "pa\u00F1uelo\u003C/w\u003E": 1697,
    "chillo\u003C/w\u003E": 1698,
    "llos\u003C/w\u003E": 1699,
    "tirador\u003C/w\u003E": 1700,
    "terminaci\u00F3n\u003C/w\u003E": 1701,
    "apli": 1702,
    "cuello\u003C/w\u003E": 1703,
    "anualmente\u003C/w\u003E": 1704,
    "situada\u003C/w\u003E": 1705,
    "1835\u003C/w\u003E": 1706,
    "agosto\u003C/w\u003E": 1707,
    "elecci\u00F3n\u003C/w\u003E": 1708,
    "deportivas\u003C/w\u003E": 1709,
    "riacho\u003C/w\u003E": 1710,
    "r\u00E1\u003C/w\u003E": 1711,
    "mico\u003C/w\u003E": 1712,
    "hom\u00F3nima\u003C/w\u003E": 1713,
    "municipios\u003C/w\u003E": 1714,
    "ag": 1715,
    "destac\u00E1ndose\u003C/w\u003E": 1716,
    "comunica\u003C/w\u003E": 1717,
    "fiestas\u003C/w\u003E": 1718,
    "\u00E9xi": 1719,
    "\u00E9xito\u003C/w\u003E": 1720,
    "1980\u003C/w\u003E": 1721,
    "llaman\u003C/w\u003E": 1722,
    "sobresalen\u003C/w\u003E": 1723,
    "vecino\u003C/w\u003E": 1724,
    "viv\u00EDan\u003C/w\u003E": 1725,
    "jesu\u00EDtica\u003C/w\u003E": 1726,
    "distintivo\u003C/w\u003E": 1727,
    "equivalente\u003C/w\u003E": 1728,
    "coincidentes\u003C/w\u003E": 1729,
    "venci\u00F3n\u003C/w\u003E": 1730,
    "versi\u00F3n\u003C/w\u003E": 1731,
    "\u00FAnicamente\u003C/w\u003E": 1732,
    "litigi": 1733,
    "litigio\u003C/w\u003E": 1734,
    "riachu": 1735,
    "riachuelo\u003C/w\u003E": 1736,
    "relieve\u003C/w\u003E": 1737,
    "constituido\u003C/w\u003E": 1738,
    "bajadas\u003C/w\u003E": 1739,
    "terrenos\u003C/w\u003E": 1740,
    "significativamente\u003C/w\u003E": 1741,
    "altitud\u003C/w\u003E": 1742,
    "frecuente\u003C/w\u003E": 1743,
    "t\u00EDpicas\u003C/w\u003E": 1744,
    "400\u003C/w\u003E": 1745,
    "novi": 1746,
    "caracter\u00EDstica\u003C/w\u003E": 1747,
    "bios\u003C/w\u003E": 1748,
    "isla\u003C/w\u003E": 1749,
    "poblacional\u003C/w\u003E": 1750,
    "34\u003C/w\u003E": 1751,
    "caracteriz\u00F3\u003C/w\u003E": 1752,
    "arcilla\u003C/w\u003E": 1753,
    "aire\u003C/w\u003E": 1754,
    "copi": 1755,
    "italiana\u003C/w\u003E": 1756,
    "coloniales\u003C/w\u003E": 1757,
    "construida\u003C/w\u003E": 1758,
    "comenzaron\u003C/w\u003E": 1759,
    "aparece\u003C/w\u003E": 1760,
    "urbana\u003C/w\u003E": 1761,
    "suf": 1762,
    "\u00FAltimas\u003C/w\u003E": 1763,
    "avenida\u003C/w\u003E": 1764,
    "sec": 1765,
    "produc": 1766,
    "1978\u003C/w\u003E": 1767,
    "surgi": 1768,
    "ubicaci\u00F3n\u003C/w\u003E": 1769,
    "recolecci\u00F3n\u003C/w\u003E": 1770,
    "agreg\u00F3\u003C/w\u003E": 1771,
    "provisi\u00F3n\u003C/w\u003E": 1772,
    "cercan\u00EDas\u003C/w\u003E": 1773,
    "traslado\u003C/w\u003E": 1774,
    "reducci\u00F3n\u003C/w\u003E": 1775,
    "tr\u00E1fi": 1776,
    "tr\u00E1fico\u003C/w\u003E": 1777,
    "rutas\u003C/w\u003E": 1778,
    "equilibri": 1779,
    "equilibrio\u003C/w\u003E": 1780,
    "buscando\u003C/w\u003E": 1781,
    "representan\u003C/w\u003E": 1782,
    "1527\u003C/w\u003E": 1783,
    "nacimiento\u003C/w\u003E": 1784,
    "auxilio\u003C/w\u003E": 1785,
    "saa": 1786,
    "saave": 1787,
    "saavedra\u003C/w\u003E": 1788,
    "hernandarias\u003C/w\u003E": 1789,
    "necesitaba\u003C/w\u003E": 1790,
    "ratificaci\u00F3n\u003C/w\u003E": 1791,
    "ap\u00F3": 1792,
    "diferencia\u003C/w\u003E": 1793,
    "n\u00FAc": 1794,
    "n\u00FAcle": 1795,
    "n\u00FAcleo\u003C/w\u003E": 1796,
    "procedentes\u003C/w\u003E": 1797,
    "edu": 1798,
    "conquistadores\u003C/w\u003E": 1799,
    "c\u00E9du": 1800,
    "c\u00E9dula\u003C/w\u003E": 1801,
    "leyen": 1802,
    "suce": 1803,
    "contribu": 1804,
    "dioses\u003C/w\u003E": 1805,
    "fo": 1806,
    "300\u003C/w\u003E": 1807,
    "tercer\u003C/w\u003E": 1808,
    "qu\u00ED\u003C/w\u003E": 1809,
    "ling\u00FC\u00ED": 1810,
    "rasgos\u003C/w\u003E": 1811,
    "emple": 1812,
    "conquista\u003C/w\u003E": 1813,
    "1807\u003C/w\u003E": 1814,
    "defensa\u003C/w\u003E": 1815,
    "invasiones\u003C/w\u003E": 1816,
    "inglesas\u003C/w\u003E": 1817,
    "diferenci": 1818,
    "regiones\u003C/w\u003E": 1819,
    "evang": 1820,
    "evang\u00E9": 1821,
    "solemnemente\u003C/w\u003E": 1822,
    "madre\u003C/w\u003E": 1823,
    "jud\u00EDa\u003C/w\u003E": 1824,
    "carreras\u003C/w\u003E": 1825,
    "espacio\u003C/w\u003E": 1826,
    "movimientos\u003C/w\u003E": 1827,
    "transcur": 1828,
    "ps\u003C/w\u003E": 1829,
    "avi\u00F3n\u003C/w\u003E": 1830,
    "qu\u00ED": 1831,
    "cursos\u003C/w\u003E": 1832,
    "texti": 1833,
    "f\u00FA": 1834,
    "f\u00FAtbol\u003C/w\u003E": 1835,
    "l\u00E9tico\u003C/w\u003E": 1836,
    "mandi": 1837,
    "mandiy\u00FA\u003C/w\u003E": 1838,
    "b\u00E1squet": 1839,
    "b\u00E1squet\u003C/w\u003E": 1840,
    "f\u003C/w\u003E": 1841,
    "dejar\u003C/w\u003E": 1842,
    "esp": 1843,
    "esp\u00ED": 1844,
    "ol\u00EDmpi": 1845,
    "2004\u003C/w\u003E": 1846,
    "ch\u003C/w\u003E": 1847,
    "campe\u00F3n\u003C/w\u003E": 1848,
    "juegos\u003C/w\u003E": 1849,
    "adap": 1850,
    "dr\u003C/w\u003E": 1851,
    "piragine\u003C/w\u003E": 1852,
    "operan\u003C/w\u003E": 1853,
    "empresas\u003C/w\u003E": 1854,
    "chaque\u00F1": 1855,
    "vein": 1856,
    "veinti": 1857,
    "k\u00E1": 1858,
    "kaingan": 1859,
    "kaingang\u003C/w\u003E": 1860,
    "\u00F3ni": 1861,
    "ubicarse\u003C/w\u003E": 1862,
    "m\u00E1rgenes\u003C/w\u003E": 1863,
    "comunidades\u003C/w\u003E": 1864,
    "\u00F3madas\u003C/w\u003E": 1865,
    "hostiles\u003C/w\u003E": 1866,
    "belicosos\u003C/w\u003E": 1867,
    "europeo\u003C/w\u003E": 1868,
    "vio\u003C/w\u003E": 1869,
    "62\u003C/w\u003E": 1870,
    "gu\u00E1caras\u003C/w\u003E": 1871,
    "desarrollaron\u003C/w\u003E": 1872,
    "intensa\u003C/w\u003E": 1873,
    "hacendados\u003C/w\u003E": 1874,
    "encomien": 1875,
    "encomiendas\u003C/w\u003E": 1876,
    "guaran\u00EDtica\u003C/w\u003E": 1877,
    "expulsi\u00F3n\u003C/w\u003E": 1878,
    "dida\u003C/w\u003E": 1879,
    "depen": 1880,
    "intensos\u003C/w\u003E": 1881,
    "debieron\u003C/w\u003E": 1882,
    "32\u003C/w\u003E": 1883,
    "reprimi": 1884,
    "reprimida\u003C/w\u003E": 1885,
    "ceballos\u003C/w\u003E": 1886,
    "desarrollaba\u003C/w\u003E": 1887,
    "golpe\u003C/w\u003E": 1888,
    "178": 1889,
    "1782\u003C/w\u003E": 1890,
    "encabezada\u003C/w\u003E": 1891,
    "siguieron\u003C/w\u003E": 1892,
    "c\u00F3rdoba\u003C/w\u003E": 1893,
    "adhi": 1894,
    "adhiri\u00F3\u003C/w\u003E": 1895,
    "gerv": 1896,
    "gervasi": 1897,
    "gervasio\u003C/w\u003E": 1898,
    "estableci": 1899,
    "aut\u00F3noma\u003C/w\u003E": 1900,
    "respectivas\u003C/w\u003E": 1901,
    "ubicado\u003C/w\u003E": 1902,
    "formaba\u003C/w\u003E": 1903,
    "100\u003C/w\u003E": 1904,
    "sudeste\u003C/w\u003E": 1905,
    "participaron\u003C/w\u003E": 1906,
    "1815\u003C/w\u003E": 1907,
    "banda\u003C/w\u003E": 1908,
    "potencia\u003C/w\u003E": 1909,
    "extran": 1910,
    "extranj": 1911,
    "guazurary\u003C/w\u003E": 1912,
    "ilu": 1913,
    "escuelas\u003C/w\u003E": 1914,
    "lao\u003C/w\u003E": 1915,
    "convoc\u00F3\u003C/w\u003E": 1916,
    "reg": 1917,
    "campa\u00F1a\u003C/w\u003E": 1918,
    "benjam\u00ED": 1919,
    "benjam\u00EDn\u003C/w\u003E": 1920,
    "triple\u003C/w\u003E": 1921,
    "orden": 1922,
    "orden\u00F3\u003C/w\u003E": 1923,
    "s\u00EDmbolo\u003C/w\u003E": 1924,
    "recuerda\u003C/w\u003E": 1925,
    "bartolom": 1926,
    "bartolom\u00E9\u003C/w\u003E": 1927,
    "debi\u00F3\u003C/w\u003E": 1928,
    "dispu": 1929,
    "curupay": 1930,
    "curupayty\u003C/w\u003E": 1931,
    "conveni": 1932,
    "convenio\u003C/w\u003E": 1933,
    "interprovincial\u003C/w\u003E": 1934,
    "soluci": 1935,
    "1986\u003C/w\u003E": 1936,
    "franjas\u003C/w\u003E": 1937,
    "inferior\u003C/w\u003E": 1938,
    "asamb": 1939,
    "asamble": 1940,
    "asamblea\u003C/w\u003E": 1941,
    "escudo\u003C/w\u003E": 1942,
    "pica\u003C/w\u003E": 1943,
    "corta\u003C/w\u003E": 1944,
    "marr\u00F3n\u003C/w\u003E": 1945,
    "mesopo": 1946,
    "exce": 1947,
    "49\u003C/w\u003E": 1948,
    "88": 1949,
    "29\u003C/w\u003E": 1950,
    "serie\u003C/w\u003E": 1951,
    "ub": 1952,
    "ubr\u00E9\u003C/w\u003E": 1953,
    "bosques\u003C/w\u003E": 1954,
    "occi": 1955,
    "occidental\u003C/w\u003E": 1956,
    "cuarto\u003C/w\u003E": 1957,
    "e\u00F3": 1958,
    "\u00E1neamente\u003C/w\u003E": 1959,
    "definida\u003C/w\u003E": 1960,
    "continuidad\u003C/w\u003E": 1961,
    "\u00E1mica\u003C/w\u003E": 1962,
    "sugi": 1963,
    "api": 1964,
    "apip\u00E9\u003C/w\u003E": 1965,
    "drenaje\u003C/w\u003E": 1966,
    "mismas\u003C/w\u003E": 1967,
    "corriente\u003C/w\u003E": 1968,
    "cuencas\u003C/w\u003E": 1969,
    "lluvi": 1970,
    "frecuentes\u003C/w\u003E": 1971,
    "reponen\u003C/w\u003E": 1972,
    "variantes\u003C/w\u003E": 1973,
    "palmar\u003C/w\u003E": 1974,
    "sauce\u003C/w\u003E": 1975,
    "pampe": 1976,
    "m\u00EDnima\u003C/w\u003E": 1977,
    "variaciones\u003C/w\u003E": 1978,
    "especialmente\u003C/w\u003E": 1979,
    "suelen\u003C/w\u003E": 1980,
    "elevada\u003C/w\u003E": 1981,
    "ambiente\u003C/w\u003E": 1982,
    "proveniente\u003C/w\u003E": 1983,
    "patagonia\u003C/w\u003E": 1984,
    "recibi\u00F3\u003C/w\u003E": 1985,
    "h\u00ED": 1986,
    "aprove": 1987,
    "el\u00E9c": 1988,
    "itu": 1989,
    "ituzaing\u00F3\u003C/w\u003E": 1990,
    "blancos\u003C/w\u003E": 1991,
    "porcentaje\u003C/w\u003E": 1992,
    "folc": 1993,
    "comprende\u003C/w\u003E": 1994,
    "ritmos\u003C/w\u003E": 1995,
    "d\u00F3": 1996,
    "j\u003C/w\u003E": 1997,
    "publi": 1998,
    "andro\u003C/w\u003E": 1999,
    "ez": 2000,
    "rod": 2001,
    "guez\u003C/w\u003E": 2002,
    "t\u00EDtu": 2003,
    "literarios\u003C/w\u003E": 2004,
    "tr\u00E1n": 2005,
    "tr\u00E1nsito\u003C/w\u003E": 2006,
    "monti": 2007,
    "montiel\u003C/w\u003E": 2008,
    "tarrag\u00F3\u003C/w\u003E": 2009,
    "cito\u003C/w\u003E": 2010,
    "ricar": 2011,
    "ricardo\u003C/w\u003E": 2012,
    "iro\u003C/w\u003E": 2013,
    "licas\u003C/w\u003E": 2014,
    "cionales\u003C/w\u003E": 2015,
    "circui": 2016,
    "tur\u00EDstica\u003C/w\u003E": 2017,
    "gaucho\u003C/w\u003E": 2018,
    "gil\u003C/w\u003E": 2019,
    "apari": 2020,
    "capilla\u003C/w\u003E": 2021,
    "se\u00F1or\u003C/w\u003E": 2022,
    "desarrollan\u003C/w\u003E": 2023,
    "establece\u003C/w\u003E": 2024,
    "cuesti": 2025,
    "cional\u003C/w\u003E": 2026,
    "c\u00E1": 2027,
    "c\u00E1mara\u003C/w\u003E": 2028,
    "justi": 2029,
    "p\u00FAblico\u003C/w\u003E": 2030,
    "miemb": 2031,
    "departamentos\u003C/w\u003E": 2032,
    "formosa\u003C/w\u003E": 2033,
    "dial\u003C/w\u003E": 2034,
    "integraci\u00F3n\u003C/w\u003E": 2035,
    "coo": 2036,
    "cooperaci\u00F3n\u003C/w\u003E": 2037,
    "65\u003C/w\u003E": 2038,
    "arroz\u003C/w\u003E": 2039,
    "cultivos\u003C/w\u003E": 2040,
    "industriales\u003C/w\u003E": 2041,
    "yerba\u003C/w\u003E": 2042,
    "ptus\u003C/w\u003E": 2043,
    "guerras\u003C/w\u003E": 2044,
    "nuevamente\u003C/w\u003E": 2045,
    "xxi\u003C/w\u003E": 2046,
    "sivas\u003C/w\u003E": 2047,
    "alguna\u003C/w\u003E": 2048,
    "densidad\u003C/w\u003E": 2049,
    "econ\u00F3mica\u003C/w\u003E": 2050,
    "proyec": 2051,
    "fiere\u003C/w\u003E": 2052,
    "aer\u00F3": 2053,
    "aer\u00F3d": 2054,
    "aer\u00F3dromos\u003C/w\u003E": 2055,
    "aeropuertos\u003C/w\u003E": 2056,
    "viles\u003C/w\u003E": 2057,
    "ferro": 2058,
    "ferrovi": 2059,
    "parten\u003C/w\u003E": 2060,
    "pasajeros\u003C/w\u003E": 2061,
    "atractivo\u003C/w\u003E": 2062,
    "cimiento\u003C/w\u003E": 2063,
    "abarca\u003C/w\u003E": 2064,
    "pol\u00EDtica\u003C/w\u003E": 2065,
    "declaraci\u00F3n\u003C/w\u003E": 2066,
    "ten\u00EDan\u003C/w\u003E": 2067,
    "dientes\u003C/w\u003E": 2068,
    "exactamente\u003C/w\u003E": 2069,
    "tiempos\u003C/w\u003E": 2070,
    "creen": 2071,
    "creencias\u003C/w\u003E": 2072,
    "legu": 2073,
    "junio\u003C/w\u003E": 2074,
    "indivi": 2075,
    "individu": 2076,
    "suficiente\u003C/w\u003E": 2077,
    "seis\u003C/w\u003E": 2078,
    "deriva\u003C/w\u003E": 2079,
    "identifi": 2080,
    "\u00FAltima\u003C/w\u003E": 2081,
    "distancia\u003C/w\u003E": 2082,
    "riachos\u003C/w\u003E": 2083,
    "jesuita\u003C/w\u003E": 2084,
    "cualqui": 2085,
    "tilla\u003C/w\u003E": 2086,
    "c\u00FA\u003C/w\u003E": 2087,
    "logr\u00F3\u003C/w\u003E": 2088,
    "ej\u00E9r": 2089,
    "segundo\u003C/w\u003E": 2090,
    "41\u003C/w\u003E": 2091,
    "puj": 2092,
    "diez\u003C/w\u003E": 2093,
    "187": 2094,
    "siguiente\u003C/w\u003E": 2095,
    "\u00FAnica\u003C/w\u003E": 2096,
    "extenso\u003C/w\u003E": 2097,
    "enorme\u003C/w\u003E": 2098,
    "alrededor\u003C/w\u003E": 2099,
    "ry": 2100,
    "amarilla\u003C/w\u003E": 2101,
    "lobito\u003C/w\u003E": 2102,
    "hormigu": 2103,
    "hormiguero\u003C/w\u003E": 2104,
    "reintroducido\u003C/w\u003E": 2105,
    "nutria\u003C/w\u003E": 2106,
    "1983\u003C/w\u003E": 2107,
    "71\u003C/w\u003E": 2108,
    "miguel\u003C/w\u003E": 2109,
    "ancha\u003C/w\u003E": 2110,
    "vuelta\u003C/w\u003E": 2111,
    "ra\u00EDces\u003C/w\u003E": 2112,
    "av": 2113,
    "av\u00E1\u003C/w\u003E": 2114,
    "ecoturismo\u003C/w\u003E": 2115,
    "alojamiento\u003C/w\u003E": 2116,
    "furtiva\u003C/w\u003E": 2117,
    "cursiones\u003C/w\u003E": 2118,
    "posibilidad\u003C/w\u003E": 2119,
    "notable\u003C/w\u003E": 2120,
    "t\u003C/w\u003E": 2121,
    "timb\u00F3\u003C/w\u003E": 2122,
    "palmeras\u003C/w\u003E": 2123,
    "frutos\u003C/w\u003E": 2124,
    "caray\u00E1\u003C/w\u003E": 2125,
    "embarcaciones\u003C/w\u003E": 2126,
    "silvestres\u003C/w\u003E": 2127,
    "dedos\u003C/w\u003E": 2128,
    "ejemplares\u003C/w\u003E": 2129,
    "ocelote\u003C/w\u003E": 2130,
    "gica\u003C/w\u003E": 2131,
    "disfru": 2132,
    "disfrutar\u003C/w\u003E": 2133,
    "gu\u00EDa\u003C/w\u003E": 2134,
    "desarrollar\u003C/w\u003E": 2135,
    "buscan\u003C/w\u003E": 2136,
    "experiencia\u003C/w\u003E": 2137,
    "muestra\u003C/w\u003E": 2138,
    "estilos\u003C/w\u003E": 2139,
    "inmaterial\u003C/w\u003E": 2140,
    "ku": 2141,
    "celebraci\u00F3n\u003C/w\u003E": 2142,
    "celebraciones\u003C/w\u003E": 2143,
    "motivos\u003C/w\u003E": 2144,
    "cedro\u003C/w\u003E": 2145,
    "sencilla\u003C/w\u003E": 2146,
    "sepp\u003C/w\u003E": 2147,
    "empe": 2148,
    "\u00F3rgano\u003C/w\u003E": 2149,
    "cuerdas\u003C/w\u003E": 2150,
    "trompeta\u003C/w\u003E": 2151,
    "mezc": 2152,
    "especie\u003C/w\u003E": 2153,
    "usado\u003C/w\u003E": 2154,
    "perfec": 2155,
    "perfecci": 2156,
    "eltas\u003C/w\u003E": 2157,
    "diario\u003C/w\u003E": 2158,
    "m\u00FAsico\u003C/w\u003E": 2159,
    "sapu": 2160,
    "flauta\u003C/w\u003E": 2161,
    "ca\u00F1a\u003C/w\u003E": 2162,
    "composiciones\u003C/w\u003E": 2163,
    "versos\u003C/w\u003E": 2164,
    "enlazada\u003C/w\u003E": 2165,
    "suelta\u003C/w\u003E": 2166,
    "ejecuci\u00F3n\u003C/w\u003E": 2167,
    "coreogr\u00E1fica\u003C/w\u003E": 2168,
    "coreograf\u00EDa\u003C/w\u003E": 2169,
    "acompa\u00F1amiento\u003C/w\u003E": 2170,
    "melod\u00EDa\u003C/w\u003E": 2171,
    "samuel\u003C/w\u003E": 2172,
    "sul\u003C/w\u003E": 2173,
    "eb": 2174,
    "espalda\u003C/w\u003E": 2175,
    "illa\u003C/w\u003E": 2176,
    "rodillas\u003C/w\u003E": 2177,
    "prenda\u003C/w\u003E": 2178,
    "espont": 2179,
    "redon": 2180,
    "llevar\u003C/w\u003E": 2181,
    "calza\u003C/w\u003E": 2182,
    "erro\u003C/w\u003E": 2183,
    "\u00F1a\u003C/w\u003E": 2184,
    "partidari": 2185,
    "partidaria\u003C/w\u003E": 2186,
    "usa\u003C/w\u003E": 2187,
    "blusa\u003C/w\u003E": 2188,
    "arcos\u003C/w\u003E": 2189,
    "juventud\u003C/w\u003E": 2190,
    "ing\u00E1\u003C/w\u003E": 2191,
    "estudiantes\u003C/w\u003E": 2192,
    "hoteles\u003C/w\u003E": 2193,
    "inamb\u00FA\u003C/w\u003E": 2194,
    "pod": 2195,
    "sui": 2196,
    "suiri": 2197,
    "suirir\u00ED\u003C/w\u003E": 2198,
    "convi": 2199,
    "convierte\u003C/w\u003E": 2200,
    "aglomerado\u003C/w\u003E": 2201,
    "universitario\u003C/w\u003E": 2202,
    "barranqueras\u003C/w\u003E": 2203,
    "diari": 2204,
    "diariamente\u003C/w\u003E": 2205,
    "personas\u003C/w\u003E": 2206,
    "cn": 2207,
    "integran\u003C/w\u003E": 2208,
    "guera\u003C/w\u003E": 2209,
    "consta\u003C/w\u003E": 2210,
    "pen\u00ED": 2211,
    "pen\u00EDn": 2212,
    "pen\u00EDnsu": 2213,
    "pen\u00EDnsulas\u003C/w\u003E": 2214,
    "nombra\u003C/w\u003E": 2215,
    "escogidos\u003C/w\u003E": 2216,
    "proven": 2217,
    "proven\u00EDa\u003C/w\u003E": 2218,
    "pr\u00F3ximo\u003C/w\u003E": 2219,
    "incipiente\u003C/w\u003E": 2220,
    "califi": 2221,
    "lagartija\u003C/w\u003E": 2222,
    "escuchaban\u003C/w\u003E": 2223,
    "versiones\u003C/w\u003E": 2224,
    "tarag\u00FCy\u003C/w\u003E": 2225,
    "convenci\u00F3n\u003C/w\u003E": 2226,
    "costumbre\u003C/w\u003E": 2227,
    "barrio\u003C/w\u003E": 2228,
    "pexo": 2229,
    "pexoa\u003C/w\u003E": 2230,
    "1963\u003C/w\u003E": 2231,
    "promul": 2232,
    "caracterizada\u003C/w\u003E": 2233,
    "crecidas\u003C/w\u003E": 2234,
    "dejan\u003C/w\u003E": 2235,
    "cei": 2236,
    "jacaran": 2237,
    "jacarand": 2238,
    "continental\u003C/w\u003E": 2239,
    "absolu": 2240,
    "m\u00E1ximos\u003C/w\u003E": 2241,
    "m\u00EDnimos\u003C/w\u003E": 2242,
    "43\u003C/w\u003E": 2243,
    "1400\u003C/w\u003E": 2244,
    "noviembre\u003C/w\u003E": 2245,
    "m\u00EDnimas\u003C/w\u003E": 2246,
    "suburbios\u003C/w\u003E": 2247,
    "ribera\u003C/w\u003E": 2248,
    "clasi": 2249,
    "ten\u00EDa\u003C/w\u003E": 2250,
    "27": 2251,
    "brava\u003C/w\u003E": 2252,
    "2010\u003C/w\u003E": 2253,
    "hechas\u003C/w\u003E": 2254,
    "azco": 2255,
    "azcoaga\u003C/w\u003E": 2256,
    "1700\u003C/w\u003E": 2257,
    "179": 2258,
    "circun": 2259,
    "circunscri": 2260,
    "alrededores\u003C/w\u003E": 2261,
    "\u00F1ez\u003C/w\u003E": 2262,
    "sector\u003C/w\u003E": 2263,
    "demanda\u003C/w\u003E": 2264,
    "explic\u00F3\u003C/w\u003E": 2265,
    "arquitecta\u003C/w\u003E": 2266,
    "funci": 2267,
    "instituto\u003C/w\u003E": 2268,
    "magnitud\u003C/w\u003E": 2269,
    "ciudadana\u003C/w\u003E": 2270,
    "rodeada\u003C/w\u003E": 2271,
    "b\u00E1sicos\u003C/w\u003E": 2272,
    "planificaci\u00F3n\u003C/w\u003E": 2273,
    "puedan\u003C/w\u003E": 2274,
    "licos\u003C/w\u003E": 2275,
    "r\u00E1n\u003C/w\u003E": 2276,
    "construyendo\u003C/w\u003E": 2277,
    "mejorar\u003C/w\u003E": 2278,
    "dificultades\u003C/w\u003E": 2279,
    "alqui": 2280,
    "discotecas\u003C/w\u003E": 2281,
    "marcando\u003C/w\u003E": 2282,
    "comienzo\u003C/w\u003E": 2283,
    "situados\u003C/w\u003E": 2284,
    "mejores\u003C/w\u003E": 2285,
    "spi": 2286,
    "36\u003C/w\u003E": 2287,
    "dota\u003C/w\u003E": 2288,
    "ap\u00F3co": 2289,
    "ap\u00F3cope\u003C/w\u003E": 2290,
    "gi\u00F3\u003C/w\u003E": 2291,
    "privile": 2292,
    "privilegi": 2293,
    "privilegiada\u003C/w\u003E": 2294,
    "elevaci\u00F3n\u003C/w\u003E": 2295,
    "convirti": 2296,
    "convirti\u00F3\u003C/w\u003E": 2297,
    "educaci\u00F3n\u003C/w\u003E": 2298,
    "costumb": 2299,
    "costumbres\u003C/w\u003E": 2300,
    "continuos\u003C/w\u003E": 2301,
    "edificaci\u00F3n\u003C/w\u003E": 2302,
    "temprana\u003C/w\u003E": 2303,
    "felipe\u003C/w\u003E": 2304,
    "efi": 2305,
    "eficaz\u003C/w\u003E": 2306,
    "leyenda\u003C/w\u003E": 2307,
    "r\u00E9plica\u003C/w\u003E": 2308,
    "sucedi\u00F3\u003C/w\u003E": 2309,
    "fehaci": 2310,
    "fehacientemente\u003C/w\u003E": 2311,
    "contribuy\u00F3\u003C/w\u003E": 2312,
    "ve\u00EDan\u003C/w\u003E": 2313,
    "ertos\u003C/w\u003E": 2314,
    "hablaban\u003C/w\u003E": 2315,
    "castellano\u003C/w\u003E": 2316,
    "familias\u003C/w\u003E": 2317,
    "raz\u00F3n\u003C/w\u003E": 2318,
    "resultado\u003C/w\u003E": 2319,
    "violencia\u003C/w\u003E": 2320,
    "reper": 2321,
    "cusi\u00F3n\u003C/w\u003E": 2322,
    "formaron\u003C/w\u003E": 2323,
    "cionada\u003C/w\u003E": 2324,
    "conicet\u003C/w\u003E": 2325,
    "obstante\u003C/w\u003E": 2326,
    "evang\u00E9lica\u003C/w\u003E": 2327,
    "merced\u003C/w\u003E": 2328,
    "\u00E9ndole\u003C/w\u003E": 2329,
    "volvieron\u003C/w\u003E": 2330,
    "legislatura\u003C/w\u003E": 2331,
    "21": 2332,
    "quedando\u003C/w\u003E": 2333,
    "obligaci\u00F3n\u003C/w\u003E": 2334,
    "hijo\u003C/w\u003E": 2335,
    "devolver\u003C/w\u003E": 2336,
    "verdadera\u003C/w\u003E": 2337,
    "universitarias\u003C/w\u003E": 2338,
    "perteneci": 2339,
    "\u00E1m": 2340,
    "\u00E1mbi": 2341,
    "\u00E1mbito\u003C/w\u003E": 2342,
    "atractivos\u003C/w\u003E": 2343,
    "mobili": 2344,
    "disposici\u00F3n\u003C/w\u003E": 2345,
    "artes\u003C/w\u003E": 2346,
    "paseos\u003C/w\u003E": 2347,
    "tti\u003C/w\u003E": 2348,
    "monumentos\u003C/w\u003E": 2349,
    "primaria\u003C/w\u003E": 2350,
    "m\u00E9": 2351,
    "disponi": 2352,
    "roja\u003C/w\u003E": 2353,
    "tipos\u003C/w\u003E": 2354,
    "textil\u003C/w\u003E": 2355,
    "dedica\u003C/w\u003E": 2356,
    "sint\u00E9tico\u003C/w\u003E": 2357,
    "atl\u00E9tico\u003C/w\u003E": 2358,
    "temporadas\u003C/w\u003E": 2359,
    "alve": 2360,
    "alvear\u003C/w\u003E": 2361,
    "by\u003C/w\u003E": 2362,
    "equipos\u003C/w\u003E": 2363,
    "ke": 2364,
    "key\u003C/w\u003E": 2365,
    "moderna\u003C/w\u003E": 2366,
    "mencionar\u003C/w\u003E": 2367,
    "impul": 2368,
    "impulso\u003C/w\u003E": 2369,
    "deportistas\u003C/w\u003E": 2370,
    "ol\u00EDmpico\u003C/w\u003E": 2371,
    "practicante\u003C/w\u003E": 2372,
    "tae": 2373,
    "taek": 2374,
    "taekw": 2375,
    "taekwondo\u003C/w\u003E": 2376,
    "crismani": 2377,
    "crismanich\u003C/w\u003E": 2378,
    "copa\u003C/w\u003E": 2379,
    "ruedas\u003C/w\u003E": 2380,
    "particip\u00F3\u003C/w\u003E": 2381,
    "2019\u003C/w\u003E": 2382,
    "instalaci\u00F3n\u003C/w\u003E": 2383,
    "reformas\u003C/w\u003E": 2384,
    "vapor\u003C/w\u003E": 2385,
    "texto\u003C/w\u003E": 2386,
    "veinticuatro\u003C/w\u003E": 2387,
    "antiguas\u003C/w\u003E": 2388,
    "declarado\u003C/w\u003E": 2389,
    "idiom\u00E1tica\u003C/w\u003E": 2390,
    "k\u00E1ingan": 2391,
    "k\u00E1ingang\u003C/w\u003E": 2392,
    "500\u003C/w\u003E": 2393,
    "amaz\u00F3ni": 2394,
    "amaz\u00F3nica\u003C/w\u003E": 2395,
    "tek": 2396,
    "teko": 2397,
    "teko\u00E1\u003C/w\u003E": 2398,
    "alde": 2399,
    "aldeas\u003C/w\u003E": 2400,
    "guarinitizaci\u00F3n\u003C/w\u003E": 2401,
    "semin\u00F3madas\u003C/w\u003E": 2402,
    "veneci": 2403,
    "veneciano\u003C/w\u003E": 2404,
    "1528\u003C/w\u003E": 2405,
    "concedi\u00F3\u003C/w\u003E": 2406,
    "adelantazgo\u003C/w\u003E": 2407,
    "celebradas\u003C/w\u003E": 2408,
    "otorgaban\u003C/w\u003E": 2409,
    "err\u00F3nea\u003C/w\u003E": 2410,
    "afirmaci\u00F3n\u003C/w\u003E": 2411,
    "simplemente\u003C/w\u003E": 2412,
    "ampliado\u003C/w\u003E": 2413,
    "honrar\u003C/w\u003E": 2414,
    "apocopado\u003C/w\u003E": 2415,
    "sumaron\u003C/w\u003E": 2416,
    "86\u003C/w\u003E": 2417,
    "instalaron\u003C/w\u003E": 2418,
    "dirigentes\u003C/w\u003E": 2419,
    "pol\u00EDticos\u003C/w\u003E": 2420,
    "mburuvi": 2421,
    "mburuvicha\u003C/w\u003E": 2422,
    "granj": 2423,
    "granje\u00F3\u003C/w\u003E": 2424,
    "temporal\u003C/w\u003E": 2425,
    "someterlos\u003C/w\u003E": 2426,
    "saque": 2427,
    "saqueos\u003C/w\u003E": 2428,
    "bande": 2429,
    "bandei": 2430,
    "bandeirantes\u003C/w\u003E": 2431,
    "remotas\u003C/w\u003E": 2432,
    "tejido\u003C/w\u003E": 2433,
    "despoblamiento\u003C/w\u003E": 2434,
    "orientales\u003C/w\u003E": 2435,
    "caer\u00EDa\u003C/w\u003E": 2436,
    "1617\u003C/w\u003E": 2437,
    "inicialmente\u003C/w\u003E": 2438,
    "conflictos\u003C/w\u003E": 2439,
    "depend\u00EDan\u003C/w\u003E": 2440,
    "negativa\u003C/w\u003E": 2441,
    "1732\u003C/w\u003E": 2442,
    "alz\u00F3\u003C/w\u003E": 2443,
    "bruno\u003C/w\u003E": 2444,
    "enviadas\u003C/w\u003E": 2445,
    "provocada\u003C/w\u003E": 2446,
    "reclutar\u003C/w\u003E": 2447,
    "represali": 2448,
    "represalias\u003C/w\u003E": 2449,
    "prove": 2450,
    "proveyendo\u003C/w\u003E": 2451,
    "tejidos\u003C/w\u003E": 2452,
    "autoabastecimento\u003C/w\u003E": 2453,
    "mercados\u003C/w\u003E": 2454,
    "intendentes\u003C/w\u003E": 2455,
    "modific\u00F3\u003C/w\u003E": 2456,
    "creando\u003C/w\u003E": 2457,
    "intendencias\u003C/w\u003E": 2458,
    "quedara\u003C/w\u003E": 2459,
    "juntos\u003C/w\u003E": 2460,
    "dotada\u003C/w\u003E": 2461,
    "formar\u00EDan\u003C/w\u003E": 2462,
    "galv": 2463,
    "galv\u00E1n\u003C/w\u003E": 2464,
    "jo": 2465,
    "decididamente\u003C/w\u003E": 2466,
    "sim\u00F3n\u003C/w\u003E": 2467,
    "garc\u00EDa\u003C/w\u003E": 2468,
    "cossi": 2469,
    "cossio\u003C/w\u003E": 2470,
    "diputado\u003C/w\u003E": 2471,
    "recibidas\u003C/w\u003E": 2472,
    "libertadoras\u003C/w\u003E": 2473,
    "voluntari": 2474,
    "voluntariamente\u003C/w\u003E": 2475,
    "federativo\u003C/w\u003E": 2476,
    "reconociendo\u003C/w\u003E": 2477,
    "protector\u003C/w\u003E": 2478,
    "establecida\u003C/w\u003E": 2479,
    "separ\u00E1n": 2480,
    "separ\u00E1ndolas\u003C/w\u003E": 2481,
    "fijando\u003C/w\u003E": 2482,
    "ruinas\u003C/w\u003E": 2483,
    "lorenzo\u003C/w\u003E": 2484,
    "luchas\u003C/w\u003E": 2485,
    "oriente\u003C/w\u003E": 2486,
    "declararon\u003C/w\u003E": 2487,
    "extranjera\u003C/w\u003E": 2488,
    "1818\u003C/w\u003E": 2489,
    "1819\u003C/w\u003E": 2490,
    "and": 2491,
    "andr\u00E9s\u003C/w\u003E": 2492,
    "lugarteniente\u003C/w\u003E": 2493,
    "patrici": 2494,
    "patriciado\u003C/w\u003E": 2495,
    "prudente\u003C/w\u003E": 2496,
    "ilustrado\u003C/w\u003E": 2497,
    "entrerriano\u003C/w\u003E": 2498,
    "proclamar\u00EDa\u003C/w\u003E": 2499,
    "comprend\u00EDa\u003C/w\u003E": 2500,
    "ef\u00ED": 2501,
    "postcolonial\u003C/w\u003E": 2502,
    "ca\u00EDdo\u003C/w\u003E": 2503,
    "desavenencias\u003C/w\u003E": 2504,
    "santafesino\u003C/w\u003E": 2505,
    "estanislao\u003C/w\u003E": 2506,
    "depuso\u003C/w\u003E": 2507,
    "dict\u00F3\u003C/w\u003E": 2508,
    "reglamento\u003C/w\u003E": 2509,
    "provisori": 2510,
    "provisorio\u003C/w\u003E": 2511,
    "ocupar\u00EDa\u003C/w\u003E": 2512,
    "sill\u00F3n\u003C/w\u003E": 2513,
    "brigadier\u003C/w\u003E": 2514,
    "asegurar\u00EDa\u003C/w\u003E": 2515,
    "anarqu\u00EDa\u003C/w\u003E": 2516,
    "definitiva\u003C/w\u003E": 2517,
    "firmar\u00EDa\u003C/w\u003E": 2518,
    "caciques\u003C/w\u003E": 2519,
    "chaque\u00F1os\u003C/w\u003E": 2520,
    "conflictiva\u003C/w\u003E": 2521,
    "precedente\u003C/w\u003E": 2522,
    "1839\u003C/w\u003E": 2523,
    "aliase\u003C/w\u003E": 2524,
    "fruc": 2525,
    "fructu": 2526,
    "fructuoso\u003C/w\u003E": 2527,
    "rivera\u003C/w\u003E": 2528,
    "pronunci": 2529,
    "urquiza\u003C/w\u003E": 2530,
    "invadido\u003C/w\u003E": 2531,
    "ocupada\u003C/w\u003E": 2532,
    "considerado\u003C/w\u003E": 2533,
    "libertador\u003C/w\u003E": 2534,
    "conclu": 2535,
    "invasi\u00F3n\u003C/w\u003E": 2536,
    "disputa\u003C/w\u003E": 2537,
    "solucionaron\u003C/w\u003E": 2538,
    "diferendo\u003C/w\u003E": 2539,
    "definiendo\u003C/w\u003E": 2540,
    "oficializada\u003C/w\u003E": 2541,
    "rojos\u003C/w\u003E": 2542,
    "constaba\u003C/w\u003E": 2543,
    "1840\u003C/w\u003E": 2544,
    "t\u00E9rminos\u003C/w\u003E": 2545,
    "xiii\u003C/w\u003E": 2546,
    "modifica\u003C/w\u003E": 2547,
    "c\u00F3mo\u003C/w\u003E": 2548,
    "urunday\u003C/w\u003E": 2549,
    "sobrevivi": 2550,
    "sobrevivi\u00F3\u003C/w\u003E": 2551,
    "suman\u003C/w\u003E": 2552,
    "aldana\u003C/w\u003E": 2553,
    "\u00E9sta\u003C/w\u003E": 2554,
    "guayqui": 2555,
    "guayquirar\u00F3\u003C/w\u003E": 2556,
    "excepci\u00F3n\u003C/w\u003E": 2557,
    "55\u003C/w\u003E": 2558,
    "87": 2559,
    "61\u003C/w\u003E": 2560,
    "disminu": 2561,
    "disminuyen\u003C/w\u003E": 2562,
    "payubr\u00E9\u003C/w\u003E": 2563,
    "caracteriza\u003C/w\u003E": 2564,
    "dominio\u003C/w\u003E": 2565,
    "hidrogr\u00E1fico\u003C/w\u003E": 2566,
    "depresi\u00F3n\u003C/w\u003E": 2567,
    "e\u00F3lico\u003C/w\u003E": 2568,
    "ocupan\u003C/w\u003E": 2569,
    "subter": 2570,
    "subterr": 2571,
    "subterr\u00E1neamente\u003C/w\u003E": 2572,
    "geolog\u00EDa\u003C/w\u003E": 2573,
    "entrerriana\u003C/w\u003E": 2574,
    "fluviales\u003C/w\u003E": 2575,
    "agricultura\u003C/w\u003E": 2576,
    "hortalizas\u003C/w\u003E": 2577,
    "ma\u00ED": 2578,
    "ma\u00EDz\u003C/w\u003E": 2579,
    "resulta\u003C/w\u003E": 2580,
    "claro\u003C/w\u003E": 2581,
    "ida\u003C/w\u003E": 2582,
    "desvi": 2583,
    "practicable\u003C/w\u003E": 2584,
    "flujo\u003C/w\u003E": 2585,
    "banco\u003C/w\u003E": 2586,
    "teor\u00EDa\u003C/w\u003E": 2587,
    "aluvi": 2588,
    "aluvionario\u003C/w\u003E": 2589,
    "capas\u003C/w\u003E": 2590,
    "imper": 2591,
    "imperme": 2592,
    "impermeable\u003C/w\u003E": 2593,
    "impide\u003C/w\u003E": 2594,
    "circulaci\u00F3n\u003C/w\u003E": 2595,
    "lluvias\u003C/w\u003E": 2596,
    "tendencias\u003C/w\u003E": 2597,
    "templado\u003C/w\u003E": 2598,
    "proximidad\u003C/w\u003E": 2599,
    "llanura\u003C/w\u003E": 2600,
    "pampeana\u003C/w\u003E": 2601,
    "abundantes\u003C/w\u003E": 2602,
    "sumada\u003C/w\u003E": 2603,
    "afec": 2604,
    "fr\u00EDo\u003C/w\u003E": 2605,
    "sudestada\u003C/w\u003E": 2606,
    "creciente\u003C/w\u003E": 2607,
    "h\u00EDdri": 2608,
    "el\u00E9ctrica\u003C/w\u003E": 2609,
    "requiere\u003C/w\u003E": 2610,
    "responde\u003C/w\u003E": 2611,
    "subfallas\u003C/w\u003E": 2612,
    "sismi": 2613,
    "sismicidad\u003C/w\u003E": 2614,
    "jeron\u003C/w\u003E": 2615,
    "1948\u003C/w\u003E": 2616,
    "rich": 2617,
    "richter\u003C/w\u003E": 2618,
    "69\u003C/w\u003E": 2619,
    "06\u003C/w\u003E": 2620,
    "22\u003C/w\u003E": 2621,
    "afinidad\u003C/w\u003E": 2622,
    "referenci": 2623,
    "folcl\u00F3rica\u003C/w\u003E": 2624,
    "libros\u003C/w\u003E": 2625,
    "romancero\u003C/w\u003E": 2626,
    "obtuvo\u003C/w\u003E": 2627,
    "baldomero\u003C/w\u003E": 2628,
    "otorgado\u003C/w\u003E": 2629,
    "compositor\u003C/w\u003E": 2630,
    "alma\u003C/w\u003E": 2631,
    "cu\u00E1\u003C/w\u003E": 2632,
    "ah\u00ED\u003C/w\u003E": 2633,
    "dul": 2634,
    "dulce\u003C/w\u003E": 2635,
    "\u00FAnicas\u003C/w\u003E": 2636,
    "encadenado\u003C/w\u003E": 2637,
    "folk": 2638,
    "rasgo\u003C/w\u003E": 2639,
    "caracter\u00EDstico\u003C/w\u003E": 2640,
    "raigambre\u003C/w\u003E": 2641,
    "alejandro\u003C/w\u003E": 2642,
    "mauri\u00F1o\u003C/w\u003E": 2643,
    "muniagur": 2644,
    "muniagurri": 2645,
    "muniagurria\u003C/w\u003E": 2646,
    "alarc\u00F3n\u003C/w\u003E": 2647,
    "rodr\u00ED": 2648,
    "rodr\u00EDguez\u003C/w\u003E": 2649,
    "arr\u00FA": 2650,
    "arr\u00FAa\u003C/w\u003E": 2651,
    "pilar\u003C/w\u003E": 2652,
    "my": 2653,
    "mann\u003C/w\u003E": 2654,
    "dosci": 2655,
    "doscientos\u003C/w\u003E": 2656,
    "t\u00EDtulos\u003C/w\u003E": 2657,
    "oriun": 2658,
    "abitbol\u003C/w\u003E": 2659,
    "bofil": 2660,
    "bofill\u003C/w\u003E": 2661,
    "mateo\u003C/w\u003E": 2662,
    "salv": 2663,
    "galarza\u003C/w\u003E": 2664,
    "ra\u00FAl\u003C/w\u003E": 2665,
    "scofano\u003C/w\u003E": 2666,
    "roque\u003C/w\u003E": 2667,
    "lustro\u003C/w\u003E": 2668,
    "esplendor\u003C/w\u003E": 2669,
    "marca\u003C/w\u003E": 2670,
    "fen\u00F3": 2671,
    "fen\u00F3meno\u003C/w\u003E": 2672,
    "circuito\u003C/w\u003E": 2673,
    "lucho\u003C/w\u003E": 2674,
    "ac\u00FA": 2675,
    "factor\u003C/w\u003E": 2676,
    "quiro": 2677,
    "altami": 2678,
    "altamirano\u003C/w\u003E": 2679,
    "ec": 2680,
    "bas\u00EDlica\u003C/w\u003E": 2681,
    "empedrado\u003C/w\u003E": 2682,
    "mitos\u003C/w\u003E": 2683,
    "c\u00E9ntrica\u003C/w\u003E": 2684,
    "2007\u003C/w\u003E": 2685,
    "legislativo\u003C/w\u003E": 2686,
    "judicial\u003C/w\u003E": 2687,
    "reele": 2688,
    "reelegido\u003C/w\u003E": 2689,
    "adoptado\u003C/w\u003E": 2690,
    "colegi": 2691,
    "r\u00E1": 2692,
    "justicia\u003C/w\u003E": 2693,
    "fiscal\u003C/w\u003E": 2694,
    "77\u003C/w\u003E": 2695,
    "continuaci\u00F3n\u003C/w\u003E": 2696,
    "colum": 2697,
    "correspondiente\u003C/w\u003E": 2698,
    "pa\u00EDses\u003C/w\u003E": 2699,
    "lim\u00EDtrofes\u003C/w\u003E": 2700,
    "objeto\u003C/w\u003E": 2701,
    "concreci\u00F3n\u003C/w\u003E": 2702,
    "noa\u003C/w\u003E": 2703,
    "representante\u003C/w\u003E": 2704,
    "miembros\u003C/w\u003E": 2705,
    "\u00F3rganos\u003C/w\u003E": 2706,
    "v\u00E9": 2707,
    "v\u00E9ase\u003C/w\u003E": 2708,
    "v\u00EDn": 2709,
    "v\u00EDnculos\u003C/w\u003E": 2710,
    "35\u003C/w\u003E": 2711,
    "ap": 2712,
    "cultivo\u003C/w\u003E": 2713,
    "altas\u003C/w\u003E": 2714,
    "explo": 2715,
    "industria\u003C/w\u003E": 2716,
    "eucali": 2717,
    "eucaliptus\u003C/w\u003E": 2718,
    "apoyada\u003C/w\u003E": 2719,
    "astilleros\u003C/w\u003E": 2720,
    "talabarter\u00EDa\u003C/w\u003E": 2721,
    "fabricaci\u00F3n\u003C/w\u003E": 2722,
    "breves\u003C/w\u003E": 2723,
    "gicas\u003C/w\u003E": 2724,
    "clim\u00E1": 2725,
    "autom\u00F3": 2726,
    "vil\u003C/w\u003E": 2727,
    "mic": 2728,
    "puertas\u003C/w\u003E": 2729,
    "rum": 2730,
    "rumbo\u003C/w\u003E": 2731,
    "fronterizos\u003C/w\u003E": 2732,
    "44\u003C/w\u003E": 2733,
    "contar\u003C/w\u003E": 2734,
    "artil": 2735,
    "buques\u003C/w\u003E": 2736,
    "operaron\u003C/w\u003E": 2737,
    "extin": 2738,
    "mediano\u003C/w\u003E": 2739,
    "a\u00E9re": 2740,
    "nive": 2741,
    "nivey": 2742,
    "niveyro\u003C/w\u003E": 2743,
    "\u00E1utico\u003C/w\u003E": 2744,
    "tur\u00EDstico\u003C/w\u003E": 2745,
    "montes\u003C/w\u003E": 2746,
    "aut\u00F3ctono\u003C/w\u003E": 2747,
    "mburucu": 2748,
    "mburucuy": 2749,
    "mburucuy\u00E1\u003C/w\u003E": 2750,
    "capillas\u003C/w\u003E": 2751,
    "temp": 2752,
    "templos\u003C/w\u003E": 2753,
    "dedicado\u003C/w\u003E": 2754,
    "chito\u003C/w\u003E": 2755,
    "civiles\u003C/w\u003E": 2756,
    "l\u00E1guido\u003C/w\u003E": 2757,
    "pr\u00E1ctica\u003C/w\u003E": 2758,
    "horti": 2759,
    "horticultura\u003C/w\u003E": 2760,
    "indis": 2761,
    "indispen": 2762,
    "indispensable\u003C/w\u003E": 2763,
    "logrando\u003C/w\u003E": 2764,
    "esp\u00EDritu\u003C/w\u003E": 2765,
    "xiv\u003C/w\u003E": 2766,
    "diversidad\u003C/w\u003E": 2767,
    "cambiando\u003C/w\u003E": 2768,
    "diferenci\u00E1ndose\u003C/w\u003E": 2769,
    "abipones\u003C/w\u003E": 2770,
    "etnia\u003C/w\u003E": 2771,
    "ling\u00FC\u00EDstica\u003C/w\u003E": 2772,
    "chan\u00E1\u003C/w\u003E": 2773,
    "\u00E1es\u003C/w\u003E": 2774,
    "quilo": 2775,
    "quiloazas\u003C/w\u003E": 2776,
    "timb\u00FAes\u003C/w\u003E": 2777,
    "ambas\u003C/w\u003E": 2778,
    "antoj": 2779,
    "pusieron\u003C/w\u003E": 2780,
    "antiguos\u003C/w\u003E": 2781,
    "fracci\u00F3n\u003C/w\u003E": 2782,
    "transmiti": 2783,
    "pr\u00E1cticas\u003C/w\u003E": 2784,
    "contrario\u003C/w\u003E": 2785,
    "quedar\u003C/w\u003E": 2786,
    "leguas\u003C/w\u003E": 2787,
    "chicos\u003C/w\u003E": 2788,
    "cuestiones\u003C/w\u003E": 2789,
    "contro": 2790,
    "controver": 2791,
    "autenti": 2792,
    "autenticidad\u003C/w\u003E": 2793,
    "fuertemente\u003C/w\u003E": 2794,
    "\u00BF\u003C/w\u003E": 2795,
    "pedregosas\u003C/w\u003E": 2796,
    "?\u003C/w\u003E": 2797,
    "interpretaciones\u003C/w\u003E": 2798,
    "\u2026\u003C/w\u003E": 2799,
    "sigue\u003C/w\u003E": 2800,
    "riv": 2801,
    "rivadene": 2802,
    "rivadeney": 2803,
    "rivadeneyra\u003C/w\u003E": 2804,
    "brazos\u003C/w\u003E": 2805,
    "manifiesta\u003C/w\u003E": 2806,
    "noti": 2807,
    "noticia\u003C/w\u003E": 2808,
    "mayores\u003C/w\u003E": 2809,
    "llama\u003C/w\u003E": 2810,
    "llev\u00F3\u003C/w\u003E": 2811,
    "repeti": 2812,
    "repetidas\u003C/w\u003E": 2813,
    "mayormente\u003C/w\u003E": 2814,
    "incorpor\u00F3\u003C/w\u003E": 2815,
    "movi": 2816,
    "inmediata\u003C/w\u003E": 2817,
    "neg\u00F3\u003C/w\u003E": 2818,
    "obedecer\u003C/w\u003E": 2819,
    "cualquier\u003C/w\u003E": 2820,
    "autoridades\u003C/w\u003E": 2821,
    "independientemente\u003C/w\u003E": 2822,
    "alzamiento\u003C/w\u003E": 2823,
    "flotilla\u003C/w\u003E": 2824,
    "embarcados\u003C/w\u003E": 2825,
    "influenciadas\u003C/w\u003E": 2826,
    "pr\u00E9dica\u003C/w\u003E": 2827,
    "federales\u003C/w\u003E": 2828,
    "misioneros\u003C/w\u003E": 2829,
    "f\u00E9": 2830,
    "nicol\u00E1s\u003C/w\u003E": 2831,
    "totalmente\u003C/w\u003E": 2832,
    "ca\u00E1\u003C/w\u003E": 2833,
    "tranquera\u003C/w\u003E": 2834,
    "campa\u00F1as\u003C/w\u003E": 2835,
    "derrotado\u003C/w\u003E": 2836,
    "ej\u00E9rcito\u003C/w\u003E": 2837,
    "1841\u003C/w\u003E": 2838,
    "ignacio\u003C/w\u003E": 2839,
    "pus\u003C/w\u003E": 2840,
    "aceptado\u003C/w\u003E": 2841,
    "reemplaz": 2842,
    "reemplaz\u00E1ndolo\u003C/w\u003E": 2843,
    "gregorio\u003C/w\u003E": 2844,
    "depuesto\u003C/w\u003E": 2845,
    "fracasaron\u003C/w\u003E": 2846,
    "terminadas\u003C/w\u003E": 2847,
    "2011\u003C/w\u003E": 2848,
    "2013\u003C/w\u003E": 2849,
    "humedales\u003C/w\u003E": 2850,
    "conformado\u003C/w\u003E": 2851,
    "45\u003C/w\u003E": 2852,
    "57\u003C/w\u003E": 2853,
    "aut\u00F3ctona\u003C/w\u003E": 2854,
    "pampas\u003C/w\u003E": 2855,
    "bezoarti": 2856,
    "bezoarticus\u003C/w\u003E": 2857,
    "hydrocho": 2858,
    "hydrochoeru": 2859,
    "hydrochoerus\u003C/w\u003E": 2860,
    "hydrocha": 2861,
    "hydrochaeris\u003C/w\u003E": 2862,
    "chry": 2863,
    "chrysoc": 2864,
    "chrysocy": 2865,
    "chrysocyon\u003C/w\u003E": 2866,
    "urus\u003C/w\u003E": 2867,
    "latirostris\u003C/w\u003E": 2868,
    "eunectes\u003C/w\u003E": 2869,
    "notaeu": 2870,
    "notaeus\u003C/w\u003E": 2871,
    "lontra\u003C/w\u003E": 2872,
    "longicau": 2873,
    "longicaudis\u003C/w\u003E": 2874,
    "aul": 2875,
    "abundante\u003C/w\u003E": 2876,
    "\u00EDes\u003C/w\u003E": 2877,
    "jar": 2878,
    "acu\u00E1ticas\u003C/w\u003E": 2879,
    "camalote\u003C/w\u003E": 2880,
    "37": 2881,
    "3771\u003C/w\u003E": 2882,
    "protegida\u003C/w\u003E": 2883,
    "pendiente\u003C/w\u003E": 2884,
    "desag\u00FCe\u003C/w\u003E": 2885,
    "pared\u003C/w\u003E": 2886,
    "ayu": 2887,
    "bot": 2888,
    "ciclo\u003C/w\u003E": 2889,
    "gicos\u003C/w\u003E": 2890,
    "extensas\u003C/w\u003E": 2891,
    "arco\u003C/w\u003E": 2892,
    "perfi": 2893,
    "ca\u00F1adas\u003C/w\u003E": 2894,
    "etnias\u003C/w\u003E": 2895,
    "ocuparon\u003C/w\u003E": 2896,
    "refu": 2897,
    "refugi": 2898,
    "refugio\u003C/w\u003E": 2899,
    "fica\u003C/w\u003E": 2900,
    "par\u00EDs\u003C/w\u003E": 2901,
    "1930\u003C/w\u003E": 2902,
    "fruto\u003C/w\u003E": 2903,
    "observaci\u00F3n\u003C/w\u003E": 2904,
    "1970\u003C/w\u003E": 2905,
    "rendimi": 2906,
    "rendimiento\u003C/w\u003E": 2907,
    "recuperaci\u00F3n\u003C/w\u003E": 2908,
    "financiero\u003C/w\u003E": 2909,
    "ny": 2910,
    "ides\u003C/w\u003E": 2911,
    "iru": 2912,
    "repol": 2913,
    "repolli": 2914,
    "repollitos\u003C/w\u003E": 2915,
    "curup\u00ED\u003C/w\u003E": 2916,
    "sangre\u003C/w\u003E": 2917,
    "drago\u003C/w\u003E": 2918,
    "omb\u00FA\u003C/w\u003E": 2919,
    "prosopis\u003C/w\u003E": 2920,
    "af": 2921,
    "us\u003C/w\u003E": 2922,
    "cites\u003C/w\u003E": 2923,
    "dif\u00EDciles\u003C/w\u003E": 2924,
    "h\u00E1bi": 2925,
    "h\u00E1bitos\u003C/w\u003E": 2926,
    "estric": 2927,
    "estrictamente\u003C/w\u003E": 2928,
    "mont\u00E9s\u003C/w\u003E": 2929,
    "facilidad\u003C/w\u003E": 2930,
    "edor\u003C/w\u003E": 2931,
    "v\u00EDbora\u003C/w\u003E": 2932,
    "serpiente\u003C/w\u003E": 2933,
    "cascabel\u003C/w\u003E": 2934,
    "curiy\u00FA\u003C/w\u003E": 2935,
    "ariray\u003C/w\u003E": 2936,
    "reintroducidos\u003C/w\u003E": 2937,
    "emblem\u00E1": 2938,
    "emblem\u00E1tico\u003C/w\u003E": 2939,
    "activo\u003C/w\u003E": 2940,
    "silvestre\u003C/w\u003E": 2941,
    "reproducci\u00F3n\u003C/w\u003E": 2942,
    "alg\u00FAn\u003C/w\u003E": 2943,
    "capuchino\u003C/w\u003E": 2944,
    "amarillo\u003C/w\u003E": 2945,
    "op": 2946,
    "opciones\u003C/w\u003E": 2947,
    "establecimientos\u003C/w\u003E": 2948,
    "paseo\u003C/w\u003E": 2949,
    "embarcado\u003C/w\u003E": 2950,
    "adquiere\u003C/w\u003E": 2951,
    "contratar\u003C/w\u003E": 2952,
    "k\u003C/w\u003E": 2953,
    "bir": 2954,
    "obten": 2955,
    "ubicadas\u003C/w\u003E": 2956,
    "bordes\u003C/w\u003E": 2957,
    "excursiones\u003C/w\u003E": 2958,
    "ofrece\u003C/w\u003E": 2959,
    "opiniones\u003C/w\u003E": 2960,
    "837\u003C/w\u003E": 2961,
    "humanidad\u003C/w\u003E": 2962,
    "ritual\u003C/w\u003E": 2963,
    "jero": 2964,
    "jerok": 2965,
    "jeroky\u003C/w\u003E": 2966,
    "ka\u003C/w\u003E": 2967,
    "taku": 2968,
    "r\u00EDt": 2969,
    "objetivo\u003C/w\u003E": 2970,
    "\u00F1emon": 2971,
    "\u00F1emongarai\u003C/w\u003E": 2972,
    "bendici\u00F3n\u003C/w\u003E": 2973,
    "asco\u003C/w\u003E": 2974,
    "ense\u00F1anza\u003C/w\u003E": 2975,
    "usos\u003C/w\u003E": 2976,
    "t\u00FA": 2977,
    "quiz\u00E1s\u003C/w\u003E": 2978,
    "169": 2979,
    "1691\u003C/w\u003E": 2980,
    "reyes\u003C/w\u003E": 2981,
    "ense\u00F1": 2982,
    "maestros\u003C/w\u003E": 2983,
    "vib": 2984,
    "vibrante\u003C/w\u003E": 2985,
    "clavi": 2986,
    "clavicor": 2987,
    "clavicordios\u003C/w\u003E": 2988,
    "chirim\u00EDas\u003C/w\u003E": 2989,
    "flautas\u003C/w\u003E": 2990,
    "condu": 2991,
    "converti": 2992,
    "mel\u00F3dico\u003C/w\u003E": 2993,
    "rasguido\u003C/w\u003E": 2994,
    "guatap\u00FA\u003C/w\u003E": 2995,
    "sugiere\u003C/w\u003E": 2996,
    "afirman\u003C/w\u003E": 2997,
    "insuf": 2998,
    "insuflaba\u003C/w\u003E": 2999,
    "fragua\u003C/w\u003E": 3000,
    "dami\u00E1n\u003C/w\u003E": 3001,
    "viena\u003C/w\u003E": 3002,
    "condici\u00F3n\u003C/w\u003E": 3003,
    "permiti": 3004,
    "reun\u00EDan\u003C/w\u003E": 3005,
    "procedencia\u003C/w\u003E": 3006,
    "discograf\u00EDa\u003C/w\u003E": 3007,
    "carrera\u003C/w\u003E": 3008,
    "formado\u003C/w\u003E": 3009,
    "fabricaban\u003C/w\u003E": 3010,
    "mbarac\u00E1\u003C/w\u003E": 3011,
    "atraer\u003C/w\u003E": 3012,
    "posibili": 3013,
    "posibilit\u00F3\u003C/w\u003E": 3014,
    "poes\u00EDa\u003C/w\u003E": 3015,
    "s\u00EDlabas\u003C/w\u003E": 3016,
    "matices\u003C/w\u003E": 3017,
    "regionales\u003C/w\u003E": 3018,
    "ingenio\u003C/w\u003E": 3019,
    "creador\u003C/w\u003E": 3020,
    "or\u00EDgenes\u003C/w\u003E": 3021,
    "clase\u003C/w\u003E": 3022,
    "fabricados\u003C/w\u003E": 3023,
    "p\u00E1g\u003C/w\u003E": 3024,
    "mem\u00EA\u003C/w\u003E": 3025,
    "aim\u00EA\u003C/w\u003E": 3026,
    "amam\u00EA\u003C/w\u003E": 3027,
    "err\u00F3ne": 3028,
    "err\u00F3neamente\u003C/w\u003E": 3029,
    "baila\u003C/w\u003E": 3030,
    "modalidad\u003C/w\u003E": 3031,
    "seguir\u003C/w\u003E": 3032,
    "palabra\u003C/w\u003E": 3033,
    "chotis\u003C/w\u003E": 3034,
    "giros\u003C/w\u003E": 3035,
    "musicalmente\u003C/w\u003E": 3036,
    "europea\u003C/w\u003E": 3037,
    "binaria\u003C/w\u003E": 3038,
    "ternaria\u003C/w\u003E": 3039,
    "ejecutada\u003C/w\u003E": 3040,
    "musicalidad\u003C/w\u003E": 3041,
    "trae\u003C/w\u003E": 3042,
    "tango\u003C/w\u003E": 3043,
    "milon": 3044,
    "milonga\u003C/w\u003E": 3045,
    "mesopot": 3046,
    "mesopot\u00E1mica\u003C/w\u003E": 3047,
    "particulares\u003C/w\u003E": 3048,
    "floreos\u003C/w\u003E": 3049,
    "art\u00EDstico\u003C/w\u003E": 3050,
    "designaci\u00F3n\u003C/w\u003E": 3051,
    "int\u00E9r": 3052,
    "significado\u003C/w\u003E": 3053,
    "78\u003C/w\u003E": 3054,
    "haciendo\u003C/w\u003E": 3055,
    "bles\u003C/w\u003E": 3056,
    "merlo\u003C/w\u003E": 3057,
    "mezcla\u003C/w\u003E": 3058,
    "rio\u003C/w\u003E": 3059,
    "considerados\u003C/w\u003E": 3060,
    "corr": 3061,
    "corr\u00EA": 3062,
    "corr\u00EAa\u003C/w\u003E": 3063,
    "\u00E3o\u003C/w\u003E": 3064,
    "lei\u003C/w\u003E": 3065,
    "estadual\u003C/w\u003E": 3066,
    "ejecuta\u003C/w\u003E": 3067,
    "variaci\u00F3n\u003C/w\u003E": 3068,
    "significativas\u003C/w\u003E": 3069,
    "escuchado\u003C/w\u003E": 3070,
    "alegre\u003C/w\u003E": 3071,
    "habilidad\u003C/w\u003E": 3072,
    "efectuar\u003C/w\u003E": 3073,
    "zapateos\u003C/w\u003E": 3074,
    "requieb": 3075,
    "apoyando\u003C/w\u003E": 3076,
    "mejilla\u003C/w\u003E": 3077,
    "flexi": 3078,
    "flexi\u00F3n\u003C/w\u003E": 3079,
    "zambu": 3080,
    "zambul": 3081,
    "\u00E1ndole\u003C/w\u003E": 3082,
    "queda\u003C/w\u003E": 3083,
    "anteriormente\u003C/w\u003E": 3084,
    "concur": 3085,
    "pas\u00E9\u003C/w\u003E": 3086,
    "sobre": 3087,
    "libro\u003C/w\u003E": 3088,
    "espont\u00E1nea\u003C/w\u003E": 3089,
    "dirigi": 3090,
    "inclusi\u00F3n\u003C/w\u003E": 3091,
    "\u00E9stas\u003C/w\u003E": 3092,
    "bailanta\u003C/w\u003E": 3093,
    "reuniones\u003C/w\u003E": 3094,
    "redonda\u003C/w\u003E": 3095,
    "muj": 3096,
    "mujer\u003C/w\u003E": 3097,
    "oscuros\u003C/w\u003E": 3098,
    "azules\u003C/w\u003E": 3099,
    "guarda\u003C/w\u003E": 3100,
    "luce\u003C/w\u003E": 3101,
    "hebillas\u003C/w\u003E": 3102,
    "cuchillo\u003C/w\u003E": 3103,
    "sirve\u003C/w\u003E": 3104,
    "guardamonte\u003C/w\u003E": 3105,
    "montera\u003C/w\u003E": 3106,
    "rectan": 3107,
    "rectangular\u003C/w\u003E": 3108,
    "cinta\u003C/w\u003E": 3109,
    "cierta\u003C/w\u003E": 3110,
    "tobillos\u003C/w\u003E": 3111,
    "l\u00E1si": 3112,
    "canilleras\u003C/w\u003E": 3113,
    "pantorrilla\u003C/w\u003E": 3114,
    "sujeta\u003C/w\u003E": 3115,
    "borlas\u003C/w\u003E": 3116,
    "tarea\u003C/w\u003E": 3117,
    "hierro\u003C/w\u003E": 3118,
    "usados\u003C/w\u003E": 3119,
    "empeine\u003C/w\u003E": 3120,
    "tiras\u003C/w\u003E": 3121,
    "guacha\u003C/w\u003E": 3122,
    "ponchillo\u003C/w\u003E": 3123,
    "alpargata\u003C/w\u003E": 3124,
    "barbi": 3125,
    "barbijo\u003C/w\u003E": 3126,
    "utiliza\u003C/w\u003E": 3127,
    "cruzando\u003C/w\u003E": 3128,
    "proporci\u00F3n\u003C/w\u003E": 3129,
    "trian": 3130,
    "apliques\u003C/w\u003E": 3131,
    "usan\u003C/w\u003E": 3132,
    "negra\u003C/w\u003E": 3133,
    "mangas\u003C/w\u003E": 3134,
    "punti": 3135,
    "puntillas\u003C/w\u003E": 3136,
    "celebra\u003C/w\u003E": 3137,
    "anfiteatro\u003C/w\u003E": 3138,
    "edici\u00F3n\u003C/w\u003E": 3139,
    "mundial\u003C/w\u003E": 3140,
    "cari\u00F1": 3141,
    "categor\u00EDa\u003C/w\u003E": 3142,
    "pilastras\u003C/w\u003E": 3143,
    "italiano\u003C/w\u003E": 3144,
    "disci": 3145,
    "produjo\u003C/w\u003E": 3146,
    "bernardo\u003C/w\u003E": 3147,
    "1848\u003C/w\u003E": 3148,
    "pl\u00E1cido\u003C/w\u003E": 3149,
    "italia\u003C/w\u003E": 3150,
    "cated": 3151,
    "catedral\u003C/w\u003E": 3152,
    "comercios\u003C/w\u003E": 3153,
    "malvinas\u003C/w\u003E": 3154,
    "medalla\u003C/w\u003E": 3155,
    "mazzanti\u003C/w\u003E": 3156,
    "aclarar\u003C/w\u003E": 3157,
    "comenzado\u003C/w\u003E": 3158,
    "extenderse\u003C/w\u003E": 3159,
    "dromo\u003C/w\u003E": 3160,
    "zu": 3161,
    "zuela\u003C/w\u003E": 3162,
    "golondrinas\u003C/w\u003E": 3163,
    "variadas\u003C/w\u003E": 3164,
    "balne": 3165,
    "balnearios\u003C/w\u003E": 3166,
    "puc\u00FA\u003C/w\u003E": 3167,
    "edifi": 3168,
    "edificaciones\u003C/w\u003E": 3169,
    "artesanal\u003C/w\u003E": 3170,
    "re\u00FA": 3171,
    "influenciado\u003C/w\u003E": 3172,
    "zorro\u003C/w\u003E": 3173,
    "exterminados\u003C/w\u003E": 3174,
    "herb\u00E1ce": 3175,
    "podr\u00E1\u003C/w\u003E": 3176,
    "cauquen\u003C/w\u003E": 3177,
    "pg\u003C/w\u003E": 3178,
    "econ\u00F3mico\u003C/w\u003E": 3179,
    "confluencia\u003C/w\u003E": 3180,
    "1150\u003C/w\u003E": 3181,
    "aleda\u00F1os\u003C/w\u003E": 3182,
    "atraviesa\u003C/w\u003E": 3183,
    "comunicaci\u00F3n\u003C/w\u003E": 3184,
    "terrestre\u003C/w\u003E": 3185,
    "cnq": 3186,
    "cnq\u003C/w\u003E": 3187,
    "hern\u00E1ndez\u003C/w\u003E": 3188,
    "noguera\u003C/w\u003E": 3189,
    "latorre\u003C/w\u003E": 3190,
    "cobrado\u003C/w\u003E": 3191,
    "ag\u00FCi\u003C/w\u003E": 3192,
    "ajeno\u003C/w\u003E": 3193,
    "suyos\u003C/w\u003E": 3194,
    "conforme\u003C/w\u003E": 3195,
    "obrante\u003C/w\u003E": 3196,
    "archi": 3197,
    "archivo\u003C/w\u003E": 3198,
    "suya\u003C/w\u003E": 3199,
    "fuese\u003C/w\u003E": 3200,
    "sumaban\u003C/w\u003E": 3201,
    "calificativo\u003C/w\u003E": 3202,
    "tey\u00FA\u003C/w\u003E": 3203,
    "oportunamente\u003C/w\u003E": 3204,
    "iv\u00ED\u003C/w\u003E": 3205,
    "it\u00E1\u003C/w\u003E": 3206,
    "min\u00ED\u003C/w\u003E": 3207,
    "aquellas\u003C/w\u003E": 3208,
    "cuidaban\u003C/w\u003E": 3209,
    "campamentos\u003C/w\u003E": 3210,
    "procede\u003C/w\u003E": 3211,
    "tavag\u00FC": 3212,
    "tavag\u00FC\u00ED\u003C/w\u003E": 3213,
    "taraguy\u003C/w\u003E": 3214,
    "taagu": 3215,
    "taaguy\u003C/w\u003E": 3216,
    "referentes\u003C/w\u003E": 3217,
    "asume\u003C/w\u003E": 3218,
    "correcta\u003C/w\u003E": 3219,
    "acepta\u003C/w\u003E": 3220,
    "encontr\u00E1ndose\u003C/w\u003E": 3221,
    "120": 3222,
    "1208\u003C/w\u003E": 3223,
    "reclamada\u003C/w\u003E": 3224,
    "promulgado\u003C/w\u003E": 3225,
    "b\u00E1sicamente\u003C/w\u003E": 3226,
    "ondulaciones\u003C/w\u003E": 3227,
    "verde\u003C/w\u003E": 3228,
    "circula\u003C/w\u003E": 3229,
    "56\u003C/w\u003E": 3230,
    "descien": 3231,
    "desciende\u003C/w\u003E": 3232,
    "tormentas\u003C/w\u003E": 3233,
    "barrancos\u003C/w\u003E": 3234,
    "bancos\u003C/w\u003E": 3235,
    "altamente\u003C/w\u003E": 3236,
    "erosionada\u003C/w\u003E": 3237,
    "secuelas\u003C/w\u003E": 3238,
    "desmoronami": 3239,
    "desmoronamientos\u003C/w\u003E": 3240,
    "peri\u00F3": 3241,
    "peri\u00F3dicos\u003C/w\u003E": 3242,
    "ceibos\u003C/w\u003E": 3243,
    "jacarand\u00E1s\u003C/w\u003E": 3244,
    "naranjos\u003C/w\u003E": 3245,
    "absolutos\u003C/w\u003E": 3246,
    "1993\u003C/w\u003E": 3247,
    "acumulados\u003C/w\u003E": 3248,
    "76\u003C/w\u003E": 3249,
    "ejercer\u003C/w\u003E": 3250,
    "moderadora\u003C/w\u003E": 3251,
    "clasifi": 3252,
    "clasificado\u003C/w\u003E": 3253,
    "cfa\u003C/w\u003E": 3254,
    "k\u00F6": 3255,
    "k\u00F6p": 3256,
    "k\u00F6ppen\u003C/w\u003E": 3257,
    "43": 3258,
    "439\u003C/w\u003E": 3259,
    "270\u003C/w\u003E": 3260,
    "poblados\u003C/w\u003E": 3261,
    "427\u003C/w\u003E": 3262,
    "531\u003C/w\u003E": 3263,
    "incremento\u003C/w\u003E": 3264,
    "346\u003C/w\u003E": 3265,
    "334\u003C/w\u003E": 3266,
    "anterior\u003C/w\u003E": 3267,
    "angostas\u003C/w\u003E": 3268,
    "modestas\u003C/w\u003E": 3269,
    "corredores\u003C/w\u003E": 3270,
    "circule\u003C/w\u003E": 3271,
    "estructuras\u003C/w\u003E": 3272,
    "introdujo\u003C/w\u003E": 3273,
    "copiar\u003C/w\u003E": 3274,
    "modelos\u003C/w\u003E": 3275,
    "francesa\u003C/w\u003E": 3276,
    "resaltado\u003C/w\u003E": 3277,
    "1798\u003C/w\u003E": 3278,
    "circunscribi": 3279,
    "circunscribieron\u003C/w\u003E": 3280,
    "elevadas\u003C/w\u003E": 3281,
    "indic\u00F3\u003C/w\u003E": 3282,
    "pers": 3283,
    "perspectiva\u003C/w\u003E": 3284,
    "transformaciones\u003C/w\u003E": 3285,
    "sufri\u00F3\u003C/w\u003E": 3286,
    "ib\u00E1": 3287,
    "ib\u00E1\u00F1ez\u003C/w\u003E": 3288,
    "productivo\u003C/w\u003E": 3289,
    "hicieron\u003C/w\u003E": 3290,
    "quedaran\u003C/w\u003E": 3291,
    "absor": 3292,
    "absorbidos\u003C/w\u003E": 3293,
    "silvina\u003C/w\u003E": 3294,
    "funcionamiento\u003C/w\u003E": 3295,
    "invico\u003C/w\u003E": 3296,
    "ref": 3297,
    "refleja\u003C/w\u003E": 3298,
    "surgieron\u003C/w\u003E": 3299,
    "geogr\u00E1fica\u003C/w\u003E": 3300,
    "expandirse\u003C/w\u003E": 3301,
    "radialmente\u003C/w\u003E": 3302,
    "impli": 3303,
    "implicado\u003C/w\u003E": 3304,
    "suministrar\u003C/w\u003E": 3305,
    "residu": 3306,
    "residuos\u003C/w\u003E": 3307,
    "clo": 3308,
    "cloacas\u003C/w\u003E": 3309,
    "telefon": 3310,
    "telefon\u00EDa\u003C/w\u003E": 3311,
    "aspirar\u003C/w\u003E": 3312,
    "ciudadanos\u003C/w\u003E": 3313,
    "p\u00FAblicos\u003C/w\u003E": 3314,
    "segui": 3315,
    "seguir\u00E1n\u003C/w\u003E": 3316,
    "barriadas\u003C/w\u003E": 3317,
    "alejadas\u003C/w\u003E": 3318,
    "urbanas\u003C/w\u003E": 3319,
    "especialista\u003C/w\u003E": 3320,
    "crezca\u003C/w\u003E": 3321,
    "crear\u003C/w\u003E": 3322,
    "alejados\u003C/w\u003E": 3323,
    "maip\u00FA\u003C/w\u003E": 3324,
    "extendi": 3325,
    "extendi\u00E9ndose\u003C/w\u003E": 3326,
    "agravada\u003C/w\u003E": 3327,
    "alquileres\u003C/w\u003E": 3328,
    "oblig\u00F3\u003C/w\u003E": 3329,
    "reestruc": 3330,
    "reestructuraci\u00F3n\u003C/w\u003E": 3331,
    "verduras\u003C/w\u003E": 3332,
    "pubs\u003C/w\u003E": 3333,
    "medidas\u003C/w\u003E": 3334,
    "peatonales\u003C/w\u003E": 3335,
    "asfal": 3336,
    "asfaltados\u003C/w\u003E": 3337,
    "pr\u00F3ximos\u003C/w\u003E": 3338,
    "reubicar\u003C/w\u003E": 3339,
    "concrete\u003C/w\u003E": 3340,
    "habitabilidad\u003C/w\u003E": 3341,
    "duda\u003C/w\u003E": 3342,
    "futuro\u003C/w\u003E": 3343,
    "despegu": 3344,
    "despegue\u003C/w\u003E": 3345,
    "desventaja\u003C/w\u003E": 3346,
    "nombres\u003C/w\u003E": 3347,
    "1516\u003C/w\u003E": 3348,
    "d\u00EDaz\u003C/w\u003E": 3349,
    "sol\u00EDs\u003C/w\u003E": 3350,
    "sanc": 3351,
    "sancti\u003C/w\u003E": 3352,
    "spiritu\u003C/w\u003E": 3353,
    "1536\u003C/w\u003E": 3354,
    "alcanz\u00F3\u003C/w\u003E": 3355,
    "bermejo\u003C/w\u003E": 3356,
    "an\u00E9c": 3357,
    "an\u00E9cdota\u003C/w\u003E": 3358,
    "transform\u00F3\u003C/w\u003E": 3359,
    "pensada\u003C/w\u003E": 3360,
    "dotar\u003C/w\u003E": 3361,
    "respaldo\u003C/w\u003E": 3362,
    "extienden\u003C/w\u003E": 3363,
    "escogi\u00F3\u003C/w\u003E": 3364,
    "provocado\u003C/w\u003E": 3365,
    "escogido\u003C/w\u003E": 3366,
    "provocando\u003C/w\u003E": 3367,
    "dificultan\u003C/w\u003E": 3368,
    "protege\u003C/w\u003E": 3369,
    "ambigua\u003C/w\u003E": 3370,
    "proced\u00EDan\u003C/w\u003E": 3371,
    "desaf\u00EDo\u003C/w\u003E": 3372,
    "ataques\u003C/w\u003E": 3373,
    "fort\u00ED": 3374,
    "fort\u00EDn\u003C/w\u003E": 3375,
    "presenci\u00F3\u003C/w\u003E": 3376,
    "rei": 3377,
    "reiterados\u003C/w\u003E": 3378,
    "dictada\u003C/w\u003E": 3379,
    "iii\u003C/w\u003E": 3380,
    "160": 3381,
    "1609\u003C/w\u003E": 3382,
    "gentil\u003C/w\u003E": 3383,
    "episo": 3384,
    "episodios\u003C/w\u003E": 3385,
    "pueda\u003C/w\u003E": 3386,
    "notab": 3387,
    "notablemente\u003C/w\u003E": 3388,
    "prosperara\u003C/w\u003E": 3389,
    "pararrayos\u003C/w\u003E": 3390,
    "atrajera\u003C/w\u003E": 3391,
    "representaba\u003C/w\u003E": 3392,
    "destruir\u003C/w\u003E": 3393,
    "alude\u003C/w\u003E": 3394,
    "quemarla\u003C/w\u003E": 3395,
    "muertos\u003C/w\u003E": 3396,
    "disparos\u003C/w\u003E": 3397,
    "arcabu": 3398,
    "arcabuz\u003C/w\u003E": 3399,
    "efectuados\u003C/w\u003E": 3400,
    "atribuyeron\u003C/w\u003E": 3401,
    "ruidos\u003C/w\u003E": 3402,
    "fogonazos\u003C/w\u003E": 3403,
    "supuestos\u003C/w\u003E": 3404,
    "rel\u00E1mpagos\u003C/w\u003E": 3405,
    "1620\u003C/w\u003E": 3406,
    "1630\u003C/w\u003E": 3407,
    "introducen\u003C/w\u003E": 3408,
    "adquiri": 3409,
    "adquirieron\u003C/w\u003E": 3410,
    "pronto\u003C/w\u003E": 3411,
    "hijos\u003C/w\u003E": 3412,
    "aqu\u00ED\u003C/w\u003E": 3413,
    "biling\u00FC": 3414,
    "biling\u00FCes\u003C/w\u003E": 3415,
    "infancia\u003C/w\u003E": 3416,
    "\u00E9tnicos\u003C/w\u003E": 3417,
    "ling\u00FC\u00EDsticos\u003C/w\u003E": 3418,
    "formativos\u003C/w\u003E": 3419,
    "modali": 3420,
    "modalidades\u003C/w\u003E": 3421,
    "distinguen\u003C/w\u003E": 3422,
    "idiomas\u003C/w\u003E": 3423,
    "empleada\u003C/w\u003E": 3424,
    "infil": 3425,
    "infiltr\u00F3\u003C/w\u003E": 3426,
    "belicosidad\u003C/w\u003E": 3427,
    "176": 3428,
    "1763\u003C/w\u003E": 3429,
    "repercusi\u00F3n\u003C/w\u003E": 3430,
    "desprenderse\u003C/w\u003E": 3431,
    "art\u00EDculo\u003C/w\u003E": 3432,
    "jur\u00EDdico\u003C/w\u003E": 3433,
    "diferenciado\u003C/w\u003E": 3434,
    "encuesta\u003C/w\u003E": 3435,
    "proporcionada\u003C/w\u003E": 3436,
    "religiosa\u003C/w\u003E": 3437,
    "84\u003C/w\u003E": 3438,
    "declaran\u003C/w\u003E": 3439,
    "1660\u003C/w\u003E": 3440,
    "haci\u00E9ndole\u003C/w\u003E": 3441,
    "celebrar\u003C/w\u003E": 3442,
    "novena\u003C/w\u003E": 3443,
    "ratifi": 3444,
    "ratificar\u003C/w\u003E": 3445,
    "sancion": 3446,
    "sancion\u00F3\u003C/w\u003E": 3447,
    "2117\u003C/w\u003E": 3448,
    "cumplirse\u003C/w\u003E": 3449,
    "reconoci\u00E9n": 3450,
    "reconoci\u00E9ndola\u003C/w\u003E": 3451,
    "contornos\u003C/w\u003E": 3452,
    "celebrar": 3453,
    "celebrarla\u003C/w\u003E": 3454,
    "misericor": 3455,
    "misericordia\u003C/w\u003E": 3456,
    "redentora\u003C/w\u003E": 3457,
    "escuch": 3458,
    "escuch\u00F3\u003C/w\u003E": 3459,
    "cristiano\u003C/w\u003E": 3460,
    "asociada\u003C/w\u003E": 3461,
    "dignidad\u003C/w\u003E": 3462,
    "sud\u003C/w\u003E": 3463,
    "mormones\u003C/w\u003E": 3464,
    "musu": 3465,
    "musul": 3466,
    "musulmana\u003C/w\u003E": 3467,
    "facultades\u003C/w\u003E": 3468,
    "pertenecientes\u003C/w\u003E": 3469,
    "unne\u003C/w\u003E": 3470,
    "estudianti": 3471,
    "estudiantil\u003C/w\u003E": 3472,
    "institutos\u003C/w\u003E": 3473,
    "dictan\u003C/w\u003E": 3474,
    "t\u00E9cnicas\u003C/w\u003E": 3475,
    "privado\u003C/w\u003E": 3476,
    "arraigada\u003C/w\u003E": 3477,
    "parci": 3478,
    "parcialmente\u003C/w\u003E": 3479,
    "cielo\u003C/w\u003E": 3480,
    "palacie": 3481,
    "palaciegas\u003C/w\u003E": 3482,
    "relojes\u003C/w\u003E": 3483,
    "acumul\u00F3\u003C/w\u003E": 3484,
    "mobiliario\u003C/w\u003E": 3485,
    "valiosas\u003C/w\u003E": 3486,
    "fuentes\u003C/w\u003E": 3487,
    "consagrada\u003C/w\u003E": 3488,
    "premiada\u003C/w\u003E": 3489,
    "bron": 3490,
    "bronce\u003C/w\u003E": 3491,
    "escultoras\u003C/w\u003E": 3492,
    "perlo": 3493,
    "perlotti\u003C/w\u003E": 3494,
    "coexisten\u003C/w\u003E": 3495,
    "enriquecidos\u003C/w\u003E": 3496,
    "obrantes\u003C/w\u003E": 3497,
    "canci\u00F3n\u003C/w\u003E": 3498,
    "describe\u003C/w\u003E": 3499,
    "nost\u00E1l": 3500,
    "nost\u00E1lgico\u003C/w\u003E": 3501,
    "enre": 3502,
    "enredaderas\u003C/w\u003E": 3503,
    "quietud\u003C/w\u003E": 3504,
    "despierta\u003C/w\u003E": 3505,
    "hermosa\u003C/w\u003E": 3506,
    "brillo\u003C/w\u003E": 3507,
    "dormido\u003C/w\u003E": 3508,
    "so\u00F1": 3509,
    "so\u00F1adora\u003C/w\u003E": 3510,
    "balc\u00F3n\u003C/w\u003E": 3511,
    "espejada\u003C/w\u003E": 3512,
    "transcurri\u00F3\u003C/w\u003E": 3513,
    "contando\u003C/w\u003E": 3514,
    "dispone\u003C/w\u003E": 3515,
    "auxili": 3516,
    "auxilios\u003C/w\u003E": 3517,
    "privados\u003C/w\u003E": 3518,
    "m\u00E9dica\u003C/w\u003E": 3519,
    "complejidad\u003C/w\u003E": 3520,
    "disponible\u003C/w\u003E": 3521,
    "m\u00E9dicos\u003C/w\u003E": 3522,
    "especializados\u003C/w\u003E": 3523,
    "bio": 3524,
    "bioqu\u00ED": 3525,
    "bioqu\u00EDmica\u003C/w\u003E": 3526,
    "enfermer\u00EDa\u003C/w\u003E": 3527,
    "universitari": 3528,
    "universitaria\u003C/w\u003E": 3529,
    "bombero\u003C/w\u003E": 3530,
    "productivas\u003C/w\u003E": 3531,
    "cervecera\u003C/w\u003E": 3532,
    "quil": 3533,
    "quilmes\u003C/w\u003E": 3534,
    "cerveza\u003C/w\u003E": 3535,
    "gaseosas\u003C/w\u003E": 3536,
    "tipo": 3537,
    "tipoi": 3538,
    "tipoit\u00ED\u003C/w\u003E": 3539,
    "hilos\u003C/w\u003E": 3540,
    "recordado\u003C/w\u003E": 3541,
    "campeonato\u003C/w\u003E": 3542,
    "ascenso\u003C/w\u003E": 3543,
    "torneo\u003C/w\u003E": 3544,
    "practican\u003C/w\u003E": 3545,
    "juegan\u003C/w\u003E": 3546,
    "juventus\u003C/w\u003E": 3547,
    "spor": 3548,
    "sportivo\u003C/w\u003E": 3549,
    "parqu\u00E9\u003C/w\u003E": 3550,
    "rug": 3551,
    "rugby\u003C/w\u003E": 3552,
    "aranduroga\u003C/w\u003E": 3553,
    "pileta\u003C/w\u003E": 3554,
    "canotaje\u003C/w\u003E": 3555,
    "aje": 3556,
    "ajed": 3557,
    "ajedrez\u003C/w\u003E": 3558,
    "volei": 3559,
    "voleibol\u003C/w\u003E": 3560,
    "ciclismo\u003C/w\u003E": 3561,
    "esqu\u00ED\u003C/w\u003E": 3562,
    "acu\u00E1tico\u003C/w\u003E": 3563,
    "instalaciones\u003C/w\u003E": 3564,
    "atletismo\u003C/w\u003E": 3565,
    "hockey\u003C/w\u003E": 3566,
    "f\u00EDsi": 3567,
    "f\u00EDsica\u003C/w\u003E": 3568,
    "isef\u003C/w\u003E": 3569,
    "s\u00F3": 3570,
    "s\u00F3f": 3571,
    "s\u00F3ftbol\u003C/w\u003E": 3572,
    "esp\u00EDnola\u003C/w\u003E": 3573,
    "medal": 3574,
    "medallista\u003C/w\u003E": 3575,
    "barcelona\u003C/w\u003E": 3576,
    "1992\u003C/w\u003E": 3577,
    "atlanta\u003C/w\u003E": 3578,
    "1996\u003C/w\u003E": 3579,
    "s\u00EDd": 3580,
    "s\u00EDdne": 3581,
    "s\u00EDdney\u003C/w\u003E": 3582,
    "pek": 3583,
    "pek\u00ED": 3584,
    "pek\u00EDn\u003C/w\u003E": 3585,
    "ol\u00EDmpicos\u003C/w\u003E": 3586,
    "lond": 3587,
    "londres\u003C/w\u003E": 3588,
    "2012\u003C/w\u003E": 3589,
    "sudamericano\u003C/w\u003E": 3590,
    "leonar": 3591,
    "leonardo\u003C/w\u003E": 3592,
    "jugando\u003C/w\u003E": 3593,
    "luchador\u003C/w\u003E": 3594,
    "yuri\u003C/w\u003E": 3595,
    "maier\u003C/w\u003E": 3596,
    "adaptados\u003C/w\u003E": 3597,
    "caba\u00F1as\u003C/w\u003E": 3598,
    "jugadora\u003C/w\u003E": 3599,
    "paral\u00EDmpi": 3600,
    "paral\u00EDmpicos\u003C/w\u003E": 3601,
    "parapanamericanos\u003C/w\u003E": 3602,
    "aerol\u00EDne": 3603,
    "aerol\u00EDneas\u003C/w\u003E": 3604,
    "cruza\u003C/w\u003E": 3605,
    "terminal\u003C/w\u003E": 3606,
    "\u00F3m": 3607,
    "\u00F3mni": 3608,
    "\u00F3mnibus\u003C/w\u003E": 3609,
    "equipado\u003C/w\u003E": 3610,
    "mercan": 3611,
    "mercanc\u00EDas\u003C/w\u003E": 3612,
    "cruzaba\u003C/w\u003E": 3613,
    "antequera\u003C/w\u003E": 3614,
    "viajes\u003C/w\u003E": 3615,
    "ferry\u003C/w\u003E": 3616,
    "tet\u00E3": 3617,
    "tet\u00E3mini\u003C/w\u003E": 3618,
    "veintitr\u00E9s\u003C/w\u003E": 3619,
    "autogobernados\u003C/w\u003E": 3620,
    "electorales\u003C/w\u003E": 3621,
    "legislativos\u003C/w\u003E": 3622,
    "urbe\u003C/w\u003E": 3623,
    "catorce\u003C/w\u003E": 3624,
    "decimosexto\u003C/w\u003E": 3625,
    "alternativo\u003C/w\u003E": 3626,
    "dualidad\u003C/w\u003E": 3627,
    "ubicados\u003C/w\u003E": 3628,
    "navegante\u003C/w\u003E": 3629,
    "acogi": 3630,
    "acogieron\u003C/w\u003E": 3631,
    "aisladas\u003C/w\u003E": 3632,
    "p\u00E9r": 3633,
    "p\u00E9rdida\u003C/w\u003E": 3634,
    "torn\u00E1ndose\u003C/w\u003E": 3635,
    "adjuntos\u003C/w\u003E": 3636,
    "tercio\u003C/w\u003E": 3637,
    "vizca\u00ED": 3638,
    "vizca\u00EDnos\u003C/w\u003E": 3639,
    "suprimido\u003C/w\u003E": 3640,
    "1809\u003C/w\u003E": 3641,
    "\u00E1lzaga\u003C/w\u003E": 3642,
    "alcalde\u003C/w\u003E": 3643,
    "joa": 3644,
    "joaqu\u00ED": 3645,
    "joaqu\u00EDn\u003C/w\u003E": 3646,
    "legal\u003C/w\u003E": 3647,
    "capit": 3648,
    "capit\u00E1n\u003C/w\u003E": 3649,
    "peruano\u003C/w\u003E": 3650,
    "toribio\u003C/w\u003E": 3651,
    "luzuri": 3652,
    "luzuriaga\u003C/w\u003E": 3653,
    "1811\u003C/w\u003E": 3654,
    "enviando\u003C/w\u003E": 3655,
    "te\u00F3ricamente\u003C/w\u003E": 3656,
    "ef\u00EDmera\u003C/w\u003E": 3657,
    "pond": 3658,
    "pondr\u00EDa\u003C/w\u003E": 3659,
    "continuado\u003C/w\u003E": 3660,
    "prolongar\u00EDa\u003C/w\u003E": 3661,
    "adscri": 3662,
    "adscripci\u00F3n\u003C/w\u003E": 3663,
    "pronunciamiento\u003C/w\u003E": 3664,
    "justo\u003C/w\u003E": 3665,
    "batieron\u003C/w\u003E": 3666,
    "retirada\u003C/w\u003E": 3667,
    "mariscal\u003C/w\u003E": 3668,
    "funcionarios\u003C/w\u003E": 3669,
    "rehenes\u003C/w\u003E": 3670,
    "monumento\u003C/w\u003E": 3671,
    "homenajea\u003C/w\u003E": 3672,
    "concluir\u003C/w\u003E": 3673,
    "disputado\u003C/w\u003E": 3674,
    "horizontales\u003C/w\u003E": 3675,
    "pico\u003C/w\u003E": 3676,
    "igualmente\u003C/w\u003E": 3677,
    "silva\u003C/w\u003E": 3678,
    "cedida\u003C/w\u003E": 3679,
    "1826\u003C/w\u003E": 3680,
    "adopt\u00F3\u003C/w\u003E": 3681,
    "patria\u003C/w\u003E": 3682,
    "54": 3683,
    "542\u003C/w\u003E": 3684,
    "1921\u003C/w\u003E": 3685,
    "blas\u00F3n\u003C/w\u003E": 3686,
    "her\u00E1ldicos\u003C/w\u003E": 3687,
    "oficialmente\u003C/w\u003E": 3688,
    "naciente\u003C/w\u003E": 3689,
    "gorro\u003C/w\u003E": 3690,
    "frigi": 3691,
    "frigio\u003C/w\u003E": 3692,
    "a\u00F1ade\u003C/w\u003E": 3693,
    "llamas\u003C/w\u003E": 3694,
    "narra\u003C/w\u003E": 3695,
    "efectuada\u003C/w\u003E": 3696,
    "cruci": 3697,
    "crucifijo\u003C/w\u003E": 3698,
    "distribui": 3699,
    "distribuidas\u003C/w\u003E": 3700,
    "yatic": 3701,
    "yaticta\u003C/w\u003E": 3702,
    "recuerdan\u003C/w\u003E": 3703,
    "constituy\u00E9ndose\u003C/w\u003E": 3704,
    "barra\u003C/w\u003E": 3705,
    "quarai\u003C/w\u003E": 3706,
    "basual": 3707,
    "basualdo\u003C/w\u003E": 3708,
    "marcan\u003C/w\u003E": 3709,
    "itaemb\u00E9\u003C/w\u003E": 3710,
    "chimiray\u003C/w\u003E": 3711,
    "mesopotamia\u003C/w\u003E": 3712,
    "llana\u003C/w\u003E": 3713,
    "cerros\u003C/w\u003E": 3714,
    "hallan\u003C/w\u003E": 3715,
    "elevaciones\u003C/w\u003E": 3716,
    "47\u003C/w\u003E": 3717,
    "39": 3718,
    "399": 3719,
    "3999\u003C/w\u003E": 3720,
    "208": 3721,
    "2083\u003C/w\u003E": 3722,
    "787": 3723,
    "78788": 3724,
    "7878888": 3725,
    "787888861\u003C/w\u003E": 3726,
    "83": 3727,
    "831": 3728,
    "83116": 3729,
    "831168": 3730,
    "8311689": 3731,
    "83116897": 3732,
    "831168972\u003C/w\u003E": 3733,
    "229\u003C/w\u003E": 3734,
    "alturas\u003C/w\u003E": 3735,
    "densos\u003C/w\u003E": 3736,
    "integrar\u003C/w\u003E": 3737,
    "suelos\u003C/w\u003E": 3738,
    "derrame\u003C/w\u003E": 3739,
    "volc\u00E1nico\u003C/w\u003E": 3740,
    "sedimentos\u003C/w\u003E": 3741,
    "conectada\u003C/w\u003E": 3742,
    "din\u00E1mica\u003C/w\u003E": 3743,
    "inundable\u003C/w\u003E": 3744,
    "convergen\u003C/w\u003E": 3745,
    "intensi": 3746,
    "intensiva\u003C/w\u003E": 3747,
    "geol\u00F3gico\u003C/w\u003E": 3748,
    "hip\u00F3": 3749,
    "hip\u00F3tesis\u003C/w\u003E": 3750,
    "convincentes\u003C/w\u003E": 3751,
    "sugieren\u003C/w\u003E": 3752,
    "constituida\u003C/w\u003E": 3753,
    "desvi\u00F3\u003C/w\u003E": 3754,
    "tri\u00E1n": 3755,
    "tri\u00E1ngu": 3756,
    "tri\u00E1ngulo\u003C/w\u003E": 3757,
    "tiende\u003C/w\u003E": 3758,
    "m\u00E1xima\u003C/w\u003E": 3759,
    "osci": 3760,
    "oscilan\u003C/w\u003E": 3761,
    "950\u003C/w\u003E": 3762,
    "perio": 3763,
    "periodos\u003C/w\u003E": 3764,
    "lluviosos\u003C/w\u003E": 3765,
    "term": 3766,
    "term\u00F3metros\u003C/w\u003E": 3767,
    "195": 3768,
    "1959\u003C/w\u003E": 3769,
    "marc\u00F3\u003C/w\u003E": 3770,
    "r\u00E9cord\u003C/w\u003E": 3771,
    "inviernos\u003C/w\u003E": 3772,
    "fr\u00EDos\u003C/w\u003E": 3773,
    "vientos\u003C/w\u003E": 3774,
    "afectan\u003C/w\u003E": 3775,
    "devastadora\u003C/w\u003E": 3776,
    "1982\u003C/w\u003E": 3777,
    "h\u00EDdricos\u003C/w\u003E": 3778,
    "energ\u00EDa\u003C/w\u003E": 3779,
    "hidroel\u00E9ctrica\u003C/w\u003E": 3780,
    "produjeron\u003C/w\u003E": 3781,
    "2009\u003C/w\u003E": 3782,
    "185": 3783,
    "1853\u003C/w\u003E": 3784,
    "urbanos\u003C/w\u003E": 3785,
    "069\u003C/w\u003E": 3786,
    "879\u003C/w\u003E": 3787,
    "406\u003C/w\u003E": 3788,
    "417\u003C/w\u003E": 3789,
    "275\u003C/w\u003E": 3790,
    "413\u003C/w\u003E": 3791,
    "aunqu\u00E9\u003C/w\u003E": 3792,
    "oficiales\u003C/w\u003E": 3793,
    "censos\u003C/w\u003E": 3794,
    "recientes\u003C/w\u003E": 3795,
    "1833\u003C/w\u003E": 3796,
    "mayoritario\u003C/w\u003E": 3797,
    "siguen\u003C/w\u003E": 3798,
    "80": 3799,
    "808\u003C/w\u003E": 3800,
    "310\u003C/w\u003E": 3801,
    "mucha\u003C/w\u003E": 3802,
    "se\u00F1alada\u003C/w\u003E": 3803,
    "referenciada\u003C/w\u003E": 3804,
    "distintiva\u003C/w\u003E": 3805,
    "guarania\u003C/w\u003E": 3806,
    "se\u00F1era\u003C/w\u003E": 3807,
    "1906\u003C/w\u003E": 3808,
    "designado\u003C/w\u003E": 3809,
    "250\u003C/w\u003E": 3810,
    "camba\u003C/w\u003E": 3811,
    "1925\u003C/w\u003E": 3812,
    "naranj": 3813,
    "naranjerita\u003C/w\u003E": 3814,
    "vincha\u003C/w\u003E": 3815,
    "punz\u00F3\u003C/w\u003E": 3816,
    "tangos\u003C/w\u003E": 3817,
    "cand\u00F3mbes\u003C/w\u003E": 3818,
    "marchas\u003C/w\u003E": 3819,
    "coreograf\u00EDas\u003C/w\u003E": 3820,
    "recopilaci\u00F3n\u003C/w\u003E": 3821,
    "mainum": 3822,
    "mainumbu": 3823,
    "mainumbuj\u003C/w\u003E": 3824,
    "antiqu\u00ED": 3825,
    "antiqu\u00EDsima\u003C/w\u003E": 3826,
    "picaflor\u003C/w\u003E": 3827,
    "colibr\u00ED\u003C/w\u003E": 3828,
    "caricaturista\u003C/w\u003E": 3829,
    "innu": 3830,
    "innumerables\u003C/w\u003E": 3831,
    "publicaciones\u003C/w\u003E": 3832,
    "konex\u003C/w\u003E": 3833,
    "folklore\u003C/w\u003E": 3834,
    "premios\u003C/w\u003E": 3835,
    "acend": 3836,
    "acendrada\u003C/w\u003E": 3837,
    "conservadora\u003C/w\u003E": 3838,
    "m\u00E1gico\u003C/w\u003E": 3839,
    "t\u00EDpicista\u003C/w\u003E": 3840,
    "frank": 3841,
    "franklin\u003C/w\u003E": 3842,
    "r\u00FAve": 3843,
    "r\u00FAveda\u003C/w\u003E": 3844,
    "gordi": 3845,
    "gordiola\u003C/w\u003E": 3846,
    "niella\u003C/w\u003E": 3847,
    "velmiro\u003C/w\u003E": 3848,
    "ef": 3849,
    "efra\u00ED": 3850,
    "efra\u00EDn\u003C/w\u003E": 3851,
    "maidana\u003C/w\u003E": 3852,
    "vedo": 3853,
    "vedoya\u003C/w\u003E": 3854,
    "nil": 3855,
    "nilda\u003C/w\u003E": 3856,
    "nicolini\u003C/w\u003E": 3857,
    "gabriel\u003C/w\u003E": 3858,
    "alv": 3859,
    "alvaren": 3860,
    "alvarenga\u003C/w\u003E": 3861,
    "godo": 3862,
    "godoy\u003C/w\u003E": 3863,
    "noya\u003C/w\u003E": 3864,
    "gerardo\u003C/w\u003E": 3865,
    "ezquer\u003C/w\u003E": 3866,
    "zelaya\u003C/w\u003E": 3867,
    "maril": 3868,
    "marily\u003C/w\u003E": 3869,
    "sego": 3870,
    "segovia\u003C/w\u003E": 3871,
    "jorge\u003C/w\u003E": 3872,
    "s\u00E1n": 3873,
    "s\u00E1nchez\u003C/w\u003E": 3874,
    "aguilar\u003C/w\u003E": 3875,
    "mu\u00F1": 3876,
    "mu\u00F1o": 3877,
    "mu\u00F1oz\u003C/w\u003E": 3878,
    "facundo\u003C/w\u003E": 3879,
    "sch": 3880,
    "schvet": 3881,
    "schvetz\u003C/w\u003E": 3882,
    "myrna\u003C/w\u003E": 3883,
    "neumann\u003C/w\u003E": 3884,
    "n\u00FA\u00F1ez\u003C/w\u003E": 3885,
    "edi": 3886,
    "editori": 3887,
    "editoriales\u003C/w\u003E": 3888,
    "medianas\u003C/w\u003E": 3889,
    "mog": 3890,
    "mogli": 3891,
    "moglia\u003C/w\u003E": 3892,
    "imprentas\u003C/w\u003E": 3893,
    "g\u00E9neros\u003C/w\u003E": 3894,
    "trascen": 3895,
    "trascendencia\u003C/w\u003E": 3896,
    "oriundos\u003C/w\u003E": 3897,
    "vil": 3898,
    "villal": 3899,
    "villalba\u003C/w\u003E": 3900,
    "salvador\u003C/w\u003E": 3901,
    "miqueri\u003C/w\u003E": 3902,
    "mil": 3903,
    "mill\u00E1n\u003C/w\u003E": 3904,
    "juan": 3905,
    "juancito\u003C/w\u003E": 3906,
    "g\u00FCenaga\u003C/w\u003E": 3907,
    "rojas\u003C/w\u003E": 3908,
    "jen": 3909,
    "jensen\u003C/w\u003E": 3910,
    "sheri": 3911,
    "sheridan\u003C/w\u003E": 3912,
    "barbo": 3913,
    "barboza\u003C/w\u003E": 3914,
    "mi\u00F1o\u003C/w\u003E": 3915,
    "ribe": 3916,
    "ribeiro\u003C/w\u003E": 3917,
    "fito\u003C/w\u003E": 3918,
    "ledes": 3919,
    "ledesma\u003C/w\u003E": 3920,
    "universi": 3921,
    "universidades\u003C/w\u003E": 3922,
    "p\u00FAblicas\u003C/w\u003E": 3923,
    "privadas\u003C/w\u003E": 3924,
    "lanzamiento\u003C/w\u003E": 3925,
    "folcl\u00F3ri": 3926,
    "folcl\u00F3ricos\u003C/w\u003E": 3927,
    "ferias\u003C/w\u003E": 3928,
    "proliferan\u003C/w\u003E": 3929,
    "art\u00EDsticos\u003C/w\u003E": 3930,
    "teatros\u003C/w\u003E": 3931,
    "pl\u00E1": 3932,
    "pl\u00E1sticas\u003C/w\u003E": 3933,
    "arte\u003C/w\u003E": 3934,
    "ahora\u003C/w\u003E": 3935,
    "institucionales\u003C/w\u003E": 3936,
    "hitos\u003C/w\u003E": 3937,
    "accesos\u003C/w\u003E": 3938,
    "poseen\u003C/w\u003E": 3939,
    "t\u00E9cnica\u003C/w\u003E": 3940,
    "esgrafi": 3941,
    "esgrafiado\u003C/w\u003E": 3942,
    "impacto\u003C/w\u003E": 3943,
    "llaren": 3944,
    "llarens\u003C/w\u003E": 3945,
    "inspi": 3946,
    "inspiradores\u003C/w\u003E": 3947,
    "calzoni\u003C/w\u003E": 3948,
    "pintores\u003C/w\u003E": 3949,
    "adolfo\u003C/w\u003E": 3950,
    "mors\u003C/w\u003E": 3951,
    "puyau\u003C/w\u003E": 3952,
    "octavio\u003C/w\u003E": 3953,
    "elsa\u003C/w\u003E": 3954,
    "agust\u00ED": 3955,
    "agust\u00EDn\u003C/w\u003E": 3956,
    "ort": 3957,
    "orts\u003C/w\u003E": 3958,
    "figuero": 3959,
    "figueroa\u003C/w\u003E": 3960,
    "mizd": 3961,
    "mizdraj": 3962,
    "mizdraji\u003C/w\u003E": 3963,
    "eugeni": 3964,
    "eugenio\u003C/w\u003E": 3965,
    "led\u003C/w\u003E": 3966,
    "dibu": 3967,
    "dibujo\u003C/w\u003E": 3968,
    "caricatura\u003C/w\u003E": 3969,
    "chaque\u003C/w\u003E": 3970,
    "sorbel": 3971,
    "sorbellini\u003C/w\u003E": 3972,
    "cartelera\u003C/w\u003E": 3973,
    "recepci\u00F3n\u003C/w\u003E": 3974,
    "ac\u00FAstica\u003C/w\u003E": 3975,
    "comodidad\u003C/w\u003E": 3976,
    "singulari": 3977,
    "singularidades\u003C/w\u003E": 3978,
    "c\u00FA": 3979,
    "c\u00FApula\u003C/w\u003E": 3980,
    "apertura\u003C/w\u003E": 3981,
    "ojo\u003C/w\u003E": 3982,
    "vivo\u003C/w\u003E": 3983,
    "religiosidad\u003C/w\u003E": 3984,
    "devocionarios\u003C/w\u003E": 3985,
    "amplios\u003C/w\u003E": 3986,
    "continente\u003C/w\u003E": 3987,
    "quiroz\u003C/w\u003E": 3988,
    "perlait\u00E1\u003C/w\u003E": 3989,
    "olegario\u003C/w\u003E": 3990,
    "\u00E1lv": 3991,
    "\u00E1lvarez\u003C/w\u003E": 3992,
    "aparicio\u003C/w\u003E": 3993,
    "pilar": 3994,
    "pilarcita\u003C/w\u003E": 3995,
    "cultos\u003C/w\u003E": 3996,
    "ecl\u00E9tico\u003C/w\u003E": 3997,
    "diab": 3998,
    "diablo\u003C/w\u003E": 3999,
    "cat\u00F3lico\u003C/w\u003E": 4000,
    "mito\u003C/w\u003E": 4001,
    "integra\u003C/w\u003E": 4002,
    "s\u00EDmbolos\u003C/w\u003E": 4003,
    "hallado\u003C/w\u003E": 4004,
    "r\u00F3mulo\u003C/w\u003E": 4005,
    "santuarios\u003C/w\u003E": 4006,
    "evang\u00E9licas\u003C/w\u003E": 4007,
    "distinto\u003C/w\u003E": 4008,
    "colectividad\u003C/w\u003E": 4009,
    "asquenaz": 4010,
    "asquenaz\u00ED\u003C/w\u003E": 4011,
    "sefard\u00ED\u003C/w\u003E": 4012,
    "congrega\u003C/w\u003E": 4013,
    "sinagoga\u003C/w\u003E": 4014,
    "asociaci\u00F3n\u003C/w\u003E": 4015,
    "alei": 4016,
    "aleij": 4017,
    "aleijem\u003C/w\u003E": 4018,
    "promulgada\u003C/w\u003E": 4019,
    "integridad\u003C/w\u003E": 4020,
    "republi": 4021,
    "republicana\u003C/w\u003E": 4022,
    "1949\u003C/w\u003E": 4023,
    "t\u00EDtulo\u003C/w\u003E": 4024,
    "cuesti\u00F3n\u003C/w\u003E": 4025,
    "ejercido\u003C/w\u003E": 4026,
    "abier": 4027,
    "abiertas\u003C/w\u003E": 4028,
    "constitucional\u003C/w\u003E": 4029,
    "atribuci\u00F3n\u003C/w\u003E": 4030,
    "nombrar\u003C/w\u003E": 4031,
    "destituir\u003C/w\u003E": 4032,
    "actuando\u003C/w\u003E": 4033,
    "respectivos\u003C/w\u003E": 4034,
    "bicameralidad\u003C/w\u003E": 4035,
    "actuar\u00E1n\u003C/w\u003E": 4036,
    "disposi": 4037,
    "disposiciones\u003C/w\u003E": 4038,
    "desarrollando\u003C/w\u003E": 4039,
    "deb\u00EDa\u003C/w\u003E": 4040,
    "sesionar\u003C/w\u003E": 4041,
    "bib": 4042,
    "bibli": 4043,
    "biblio": 4044,
    "biblioteca\u003C/w\u003E": 4045,
    "constitucionales\u003C/w\u003E": 4046,
    "juz": 4047,
    "juzgados\u003C/w\u003E": 4048,
    "habi\u00E9ndose\u003C/w\u003E": 4049,
    "colegiado\u003C/w\u003E": 4050,
    "organismos\u003C/w\u003E": 4051,
    "unipersonal\u003C/w\u003E": 4052,
    "r\u00E1pido\u003C/w\u003E": 4053,
    "inferiores\u003C/w\u003E": 4054,
    "adjunto\u003C/w\u003E": 4055,
    "miembro\u003C/w\u003E": 4056,
    "subdivididos\u003C/w\u003E": 4057,
    "alfab": 4058,
    "alfab\u00E9ti": 4059,
    "alfab\u00E9ticamente\u003C/w\u003E": 4060,
    "columna\u003C/w\u003E": 4061,
    "terrestres\u003C/w\u003E": 4062,
    "suscrito\u003C/w\u003E": 4063,
    "1999\u003C/w\u003E": 4064,
    "juju": 4065,
    "jujuy\u003C/w\u003E": 4066,
    "primordial\u003C/w\u003E": 4067,
    "efectivo\u003C/w\u003E": 4068,
    "consenso\u003C/w\u003E": 4069,
    "conjunta\u003C/w\u003E": 4070,
    "m\u00E1ximo\u003C/w\u003E": 4071,
    "comit\u00E9\u003C/w\u003E": 4072,
    "coordinador\u003C/w\u003E": 4073,
    "interministerial\u003C/w\u003E": 4074,
    "coordina\u003C/w\u003E": 4075,
    "directivas\u003C/w\u003E": 4076,
    "mencionados\u003C/w\u003E": 4077,
    "perdurables\u003C/w\u003E": 4078,
    "acuerdos\u003C/w\u003E": 4079,
    "aptas\u003C/w\u003E": 4080,
    "ovina\u003C/w\u003E": 4081,
    "vacuna\u003C/w\u003E": 4082,
    "mencionarse\u003C/w\u003E": 4083,
    "bovino\u003C/w\u003E": 4084,
    "pobres\u003C/w\u003E": 4085,
    "motivo\u003C/w\u003E": 4086,
    "bran": 4087,
    "brangus\u003C/w\u003E": 4088,
    "predomina\u003C/w\u003E": 4089,
    "condiciones\u003C/w\u003E": 4090,
    "asemejan\u003C/w\u003E": 4091,
    "cr\u00EDa\u003C/w\u003E": 4092,
    "diversi": 4093,
    "diversifi": 4094,
    "diversificada\u003C/w\u003E": 4095,
    "explotaci\u00F3n\u003C/w\u003E": 4096,
    "insignifi": 4097,
    "insignificante\u003C/w\u003E": 4098,
    "desarrollada\u003C/w\u003E": 4099,
    "predominan\u003C/w\u003E": 4100,
    "industrializaci\u00F3n\u003C/w\u003E": 4101,
    "agudo\u003C/w\u003E": 4102,
    "manufactura\u003C/w\u003E": 4103,
    "azucarera\u003C/w\u003E": 4104,
    "textiles\u003C/w\u003E": 4105,
    "ef\u00EDmeros\u003C/w\u003E": 4106,
    "auges\u003C/w\u003E": 4107,
    "infusiones\u003C/w\u003E": 4108,
    "mobiliarios\u003C/w\u003E": 4109,
    "reac": 4110,
    "reactiv": 4111,
    "reactivan\u003C/w\u003E": 4112,
    "lapsos\u003C/w\u003E": 4113,
    "logre\u003C/w\u003E": 4114,
    "continua\u003C/w\u003E": 4115,
    "suerte\u003C/w\u003E": 4116,
    "c\u00E1rnica\u003C/w\u003E": 4117,
    "productoras\u003C/w\u003E": 4118,
    "hidroel\u00E9c": 4119,
    "hidroel\u00E9ctri": 4120,
    "hidroel\u00E9ctricas\u003C/w\u003E": 4121,
    "exponencial\u003C/w\u003E": 4122,
    "estrat\u00E9gicas\u003C/w\u003E": 4123,
    "geogr\u00E1fi": 4124,
    "geogr\u00E1ficas\u003C/w\u003E": 4125,
    "clim\u00E1ticas\u003C/w\u003E": 4126,
    "energ": 4127,
    "energ\u00E9tico\u003C/w\u003E": 4128,
    "incentivos\u003C/w\u003E": 4129,
    "fiscales\u003C/w\u003E": 4130,
    "potable\u003C/w\u003E": 4131,
    "intervenci\u00F3n\u003C/w\u003E": 4132,
    "independentista\u003C/w\u003E": 4133,
    "proyectados\u003C/w\u003E": 4134,
    "brindan\u003C/w\u003E": 4135,
    "ofertas\u003C/w\u003E": 4136,
    "presupuesto\u003C/w\u003E": 4137,
    "dispon": 4138,
    "disponga\u003C/w\u003E": 4139,
    "autom\u00F3vil\u003C/w\u003E": 4140,
    "micros\u003C/w\u003E": 4141,
    "habilitados\u003C/w\u003E": 4142,
    "conecta\u003C/w\u003E": 4143,
    "balsas\u003C/w\u003E": 4144,
    "autom\u00F3viles\u003C/w\u003E": 4145,
    "z\u00E1rate\u003C/w\u003E": 4146,
    "123\u003C/w\u003E": 4147,
    "sirven\u003C/w\u003E": 4148,
    "borja\u003C/w\u003E": 4149,
    "red\u003C/w\u003E": 4150,
    "ferroviari": 4151,
    "ferroviaria\u003C/w\u003E": 4152,
    "troncales\u003C/w\u003E": 4153,
    "ferrocarril\u003C/w\u003E": 4154,
    "944\u003C/w\u003E": 4155,
    "contribuyen\u003C/w\u003E": 4156,
    "artillada\u003C/w\u003E": 4157,
    "mermando\u003C/w\u003E": 4158,
    "distancias\u003C/w\u003E": 4159,
    "sistem\u00E1ti": 4160,
    "sistem\u00E1ticamente\u003C/w\u003E": 4161,
    "extinta\u003C/w\u003E": 4162,
    "rear": 4163,
    "rearm\u00F3\u003C/w\u003E": 4164,
    "alguno\u003C/w\u003E": 4165,
    "explota\u003C/w\u003E": 4166,
    "iniciativa\u003C/w\u003E": 4167,
    "privada\u003C/w\u003E": 4168,
    "contrato\u003C/w\u003E": 4169,
    "mercader\u00EDas\u003C/w\u003E": 4170,
    "contene": 4171,
    "contenedores\u003C/w\u003E": 4172,
    "barcazas\u003C/w\u003E": 4173,
    "a\u00E9reo\u003C/w\u003E": 4174,
    "a\u00E9rea\u003C/w\u003E": 4175,
    "aeron\u00E1utico\u003C/w\u003E": 4176,
    "asisti\u00F3\u003C/w\u003E": 4177,
    "hist\u00F3ricos\u003C/w\u003E": 4178,
    "mportantes\u003C/w\u003E": 4179,
    "santuario\u003C/w\u003E": 4180,
    "gauchito\u003C/w\u003E": 4181,
    "ejerce\u003C/w\u003E": 4182,
    "actuales\u003C/w\u003E": 4183,
    "activamente\u003C/w\u003E": 4184,
    "promovi\u00F3\u003C/w\u003E": 4185,
    "recolectoras\u003C/w\u003E": 4186,
    "encontraban\u003C/w\u003E": 4187,
    "influenciados\u003C/w\u003E": 4188,
    "lenguaje\u003C/w\u003E": 4189,
    "alfarer\u00EDa\u003C/w\u003E": 4190,
    "6000\u003C/w\u003E": 4191,
    "convert\u00EDa\u003C/w\u003E": 4192,
    "semisedentarios\u003C/w\u003E": 4193,
    "practicar\u003C/w\u003E": 4194,
    "roza\u003C/w\u003E": 4195,
    "parcela\u003C/w\u003E": 4196,
    "ferti": 4197,
    "fertili": 4198,
    "fertilicen\u003C/w\u003E": 4199,
    "nutrientes\u003C/w\u003E": 4200,
    "agotaban\u003C/w\u003E": 4201,
    "satisfacer\u003C/w\u003E": 4202,
    "necesidades\u003C/w\u003E": 4203,
    "depre": 4204,
    "depredase\u003C/w\u003E": 4205,
    "deteriorar\u003C/w\u003E": 4206,
    "simbiosis\u003C/w\u003E": 4207,
    "incorporaron\u003C/w\u003E": 4208,
    "cosmovisi\u00F3n\u003C/w\u003E": 4209,
    "zoomor": 4210,
    "zoomorfos\u003C/w\u003E": 4211,
    "dotados\u003C/w\u003E": 4212,
    "\u00E9tnica\u003C/w\u003E": 4213,
    "sustantiva\u003C/w\u003E": 4214,
    "ir\u00EDa\u003C/w\u003E": 4215,
    "iban\u003C/w\u003E": 4216,
    "bajando\u003C/w\u003E": 4217,
    "oleadas\u003C/w\u003E": 4218,
    "migratorias\u003C/w\u003E": 4219,
    "\u00E9tnicamente\u003C/w\u003E": 4220,
    "emparentadas\u003C/w\u003E": 4221,
    "discre": 4222,
    "discrepan": 4223,
    "discrepancia\u003C/w\u003E": 4224,
    "troncal\u003C/w\u003E": 4225,
    "caingang\u003C/w\u003E": 4226,
    "cainaroes\u003C/w\u003E": 4227,
    "yaroes\u003C/w\u003E": 4228,
    "gualachi": 4229,
    "gualachies\u003C/w\u003E": 4230,
    "guai": 4231,
    "guaiqui": 4232,
    "guaiquirares\u003C/w\u003E": 4233,
    "cupizales\u003C/w\u003E": 4234,
    "eguaros\u003C/w\u003E": 4235,
    "chanaes\u003C/w\u003E": 4236,
    "salvajes\u003C/w\u003E": 4237,
    "guaycur\u00FAes\u003C/w\u003E": 4238,
    "emparentados\u003C/w\u003E": 4239,
    "mocov\u00EDes\u003C/w\u003E": 4240,
    "pilag": 4241,
    "pilag\u00E1s\u003C/w\u003E": 4242,
    "payagu\u00E1s\u003C/w\u003E": 4243,
    "mbay": 4244,
    "mbay\u00E1s\u003C/w\u003E": 4245,
    "frentones\u003C/w\u003E": 4246,
    "guaycur\u00FA\u003C/w\u003E": 4247,
    "guardando\u003C/w\u003E": 4248,
    "cercan\u00EDa\u003C/w\u003E": 4249,
    "mocov\u00ED\u003C/w\u003E": 4250,
    "integrada\u003C/w\u003E": 4251,
    "mocoret\u00E1es\u003C/w\u003E": 4252,
    "calchines\u003C/w\u003E": 4253,
    "corondas\u003C/w\u003E": 4254,
    "chan\u00E1es\u003C/w\u003E": 4255,
    "begu": 4256,
    "begua": 4257,
    "begua\u00E9s\u003C/w\u003E": 4258,
    "revoltoso\u003C/w\u003E": 4259,
    "antojadizo\u003C/w\u003E": 4260,
    "subdivi": 4261,
    "subdivid\u00EDan\u003C/w\u003E": 4262,
    "minuanes\u003C/w\u003E": 4263,
    "martidanes\u003C/w\u003E": 4264,
    "gueno": 4265,
    "guenoas\u003C/w\u003E": 4266,
    "sumamente\u003C/w\u003E": 4267,
    "belicoso\u003C/w\u003E": 4268,
    "tradujeron\u003C/w\u003E": 4269,
    "integrantes\u003C/w\u003E": 4270,
    "flecha\u003C/w\u003E": 4271,
    "ubicaron\u003C/w\u003E": 4272,
    "n\u00F3mades\u003C/w\u003E": 4273,
    "b\u00E1rbaras\u003C/w\u003E": 4274,
    "timbu\u00E9s\u003C/w\u003E": 4275,
    "contex": 4276,
    "contextura\u003C/w\u003E": 4277,
    "nutrias\u003C/w\u003E": 4278,
    "mepen": 4279,
    "mepen\u00E9s\u003C/w\u003E": 4280,
    "ascen": 4281,
    "ascendientes\u003C/w\u003E": 4282,
    "encontramos\u003C/w\u003E": 4283,
    "abundan": 4284,
    "abundancia\u003C/w\u003E": 4285,
    "n\u00F3madas\u003C/w\u003E": 4286,
    "siguiendo\u003C/w\u003E": 4287,
    "milenio\u003C/w\u003E": 4288,
    "\u00F1e\u003C/w\u003E": 4289,
    "engatu\u003C/w\u003E": 4290,
    "perdurar\u00EDan\u003C/w\u003E": 4291,
    "gualach\u00EDes\u003C/w\u003E": 4292,
    "expulsados\u003C/w\u003E": 4293,
    "alter\u00F3\u003C/w\u003E": 4294,
    "mix": 4295,
    "mixturarse\u003C/w\u003E": 4296,
    "cristianas\u003C/w\u003E": 4297,
    "conquistados\u003C/w\u003E": 4298,
    "transmiti\u00F3\u003C/w\u003E": 4299,
    "im\u00E1genes\u003C/w\u003E": 4300,
    "agrupado\u003C/w\u003E": 4301,
    "viejas\u003C/w\u003E": 4302,
    "propias\u003C/w\u003E": 4303,
    "desaparezcan\u003C/w\u003E": 4304,
    "leyendas\u003C/w\u003E": 4305,
    "surgidas\u003C/w\u003E": 4306,
    "sincretismo\u003C/w\u003E": 4307,
    "naveg\u00F3\u003C/w\u003E": 4308,
    "torre\u003C/w\u003E": 4309,
    "alcanzaba\u003C/w\u003E": 4310,
    "iniciaba\u003C/w\u003E": 4311,
    "fijado\u003C/w\u003E": 4312,
    "157": 4313,
    "1573\u003C/w\u003E": 4314,
    "anegadizos\u003C/w\u003E": 4315,
    "problemas\u003C/w\u003E": 4316,
    "167": 4317,
    "1675\u003C/w\u003E": 4318,
    "moj\u00F3n\u003C/w\u003E": 4319,
    "controverti": 4320,
    "controvertidas\u003C/w\u003E": 4321,
    "individualizaci\u00F3n\u003C/w\u003E": 4322,
    "arraigado\u003C/w\u003E": 4323,
    "interpretativa\u003C/w\u003E": 4324,
    "topon\u00ED": 4325,
    "topon\u00EDmico\u003C/w\u003E": 4326,
    "acci": 4327,
    "accidente\u003C/w\u003E": 4328,
    "orogr\u00E1fico\u003C/w\u003E": 4329,
    "referenciar\u003C/w\u003E": 4330,
    "contrari": 4331,
    "contrariamente\u003C/w\u003E": 4332,
    "nomenc": 4333,
    "nomenclatura\u003C/w\u003E": 4334,
    "contun": 4335,
    "contundente\u003C/w\u003E": 4336,
    "exactas\u003C/w\u003E": 4337,
    "divergentes\u003C/w\u003E": 4338,
    "un\u00ED": 4339,
    "un\u00EDvocas\u003C/w\u003E": 4340,
    "toponimia\u003C/w\u003E": 4341,
    "impac": 4342,
    "impactar\u003C/w\u003E": 4343,
    "identifican\u003C/w\u003E": 4344,
    "yatigt\u00E1\u003C/w\u003E": 4345,
    "historiadores\u003C/w\u003E": 4346,
    "pied": 4347,
    "piedras\u003C/w\u003E": 4348,
    "situado\u003C/w\u003E": 4349,
    "argumenta\u003C/w\u003E": 4350,
    "sumadas\u003C/w\u003E": 4351,
    "guev": 4352,
    "guevara\u003C/w\u003E": 4353,
    "suena\u003C/w\u003E": 4354,
    "dividirse\u003C/w\u003E": 4355,
    "sacerdo": 4356,
    "sacerdote\u003C/w\u003E": 4357,
    "entender\u003C/w\u003E": 4358,
    "informe\u003C/w\u003E": 4359,
    "158": 4360,
    "1581\u003C/w\u003E": 4361,
    "explicar\u003C/w\u003E": 4362,
    "dividen\u003C/w\u003E": 4363,
    "apartan\u003C/w\u003E": 4364,
    "contreras\u003C/w\u003E": 4365,
    "defensor\u003C/w\u003E": 4366,
    "l\u00FA": 4367,
    "l\u00FAcido\u003C/w\u003E": 4368,
    "yn": 4369,
    "yn\u00E9\u003C/w\u003E": 4370,
    "hediondo\u003C/w\u003E": 4371,
    "guaran\u00EDticas\u003C/w\u003E": 4372,
    "consider\u00F3\u003C/w\u003E": 4373,
    "territoriales\u003C/w\u003E": 4374,
    "privaba\u003C/w\u003E": 4375,
    "situaciones\u003C/w\u003E": 4376,
    "llevaron\u003C/w\u003E": 4377,
    "eventualmente\u003C/w\u003E": 4378,
    "costeadas\u003C/w\u003E": 4379,
    "caus\u00F3\u003C/w\u003E": 4380,
    "indig": 4381,
    "indignaci\u00F3n\u003C/w\u003E": 4382,
    "enviara\u003C/w\u003E": 4383,
    "desertores\u003C/w\u003E": 4384,
    "t\u00E9rmino\u003C/w\u003E": 4385,
    "voluntades\u003C/w\u003E": 4386,
    "individuales\u003C/w\u003E": 4387,
    "voluntad\u003C/w\u003E": 4388,
    "encima\u003C/w\u003E": 4389,
    "dejada\u003C/w\u003E": 4390,
    "design": 4391,
    "design\u00F3\u003C/w\u003E": 4392,
    "suyo\u003C/w\u003E": 4393,
    "impu": 4394,
    "impusiera\u003C/w\u003E": 4395,
    "\u00F3rdenes\u003C/w\u003E": 4396,
    "asaltada\u003C/w\u003E": 4397,
    "rebeli\u00F3n\u003C/w\u003E": 4398,
    "derrotada\u003C/w\u003E": 4399,
    "rebeldes\u003C/w\u003E": 4400,
    "opon\u00EDan\u003C/w\u003E": 4401,
    "combate\u003C/w\u003E": 4402,
    "110\u003C/w\u003E": 4403,
    "mensajero\u003C/w\u003E": 4404,
    "eligiendo\u003C/w\u003E": 4405,
    "enviar\u003C/w\u003E": 4406,
    "hallaban\u003C/w\u003E": 4407,
    "ocupar\u003C/w\u003E": 4408,
    "tebicuary\u003C/w\u003E": 4409,
    "formaban\u003C/w\u003E": 4410,
    "\u00F1e": 4411,
    "\u00F1eembu": 4412,
    "\u00F1eembuc\u00FA\u003C/w\u003E": 4413,
    "177": 4414,
    "1779\u003C/w\u003E": 4415,
    "1792\u003C/w\u003E": 4416,
    "guardi": 4417,
    "guardias\u003C/w\u003E": 4418,
    "ful": 4419,
    "fulgen": 4420,
    "fulgencio\u003C/w\u003E": 4421,
    "yegros\u003C/w\u003E": 4422,
    "ocup\u00F3\u003C/w\u003E": 4423,
    "milici": 4424,
    "milicianos\u003C/w\u003E": 4425,
    "suel": 4426,
    "sueldo\u003C/w\u003E": 4427,
    "desalojando\u003C/w\u003E": 4428,
    "formada\u003C/w\u003E": 4429,
    "mercantiles\u003C/w\u003E": 4430,
    "artillados\u003C/w\u003E": 4431,
    "ca\u00F1onera\u003C/w\u003E": 4432,
    "oficialidad\u003C/w\u003E": 4433,
    "parti\u00F3\u003C/w\u003E": 4434,
    "hall\u00F3\u003C/w\u003E": 4435,
    "fonde": 4436,
    "fondeados\u003C/w\u003E": 4437,
    "legua\u003C/w\u003E": 4438,
    "dom\u00EDn": 4439,
    "dom\u00EDnguez\u003C/w\u003E": 4440,
    "autogobierno\u003C/w\u003E": 4441,
    "arraigar\u003C/w\u003E": 4442,
    "abandonarla\u003C/w\u003E": 4443,
    "prisionero\u003C/w\u003E": 4444,
    "declaraba\u003C/w\u003E": 4445,
    "nombrado\u003C/w\u003E": 4446,
    "asumi": 4447,
    "asumi\u00F3\u003C/w\u003E": 4448,
    "muerto\u003C/w\u003E": 4449,
    "incorporar\u003C/w\u003E": 4450,
    "f\u00E9li": 4451,
    "f\u00E9lix\u003C/w\u003E": 4452,
    "aguir": 4453,
    "aguirre\u003C/w\u003E": 4454,
    "aguape": 4455,
    "aguapey\u003C/w\u003E": 4456,
    "arip\u00ED\u003C/w\u003E": 4457,
    "incorporarse\u003C/w\u003E": 4458,
    "destruyeron\u003C/w\u003E": 4459,
    "reincorporando\u003C/w\u003E": 4460,
    "ensenadas\u003C/w\u003E": 4461,
    "galarzas\u003C/w\u003E": 4462,
    "cuadril\u00E1": 4463,
    "cuadril\u00E1tero\u003C/w\u003E": 4464,
    "solicitar\u003C/w\u003E": 4465,
    "firmantes\u003C/w\u003E": 4466,
    "fijados\u003C/w\u003E": 4467,
    "montevi": 4468,
    "montevide": 4469,
    "montevideo\u003C/w\u003E": 4470,
    "ej\u00E9rci": 4471,
    "ej\u00E9rcitos\u003C/w\u003E": 4472,
    "quebracho\u003C/w\u003E": 4473,
    "herrado\u003C/w\u003E": 4474,
    "famail": 4475,
    "famaill\u00E1\u003C/w\u003E": 4476,
    "tercero\u003C/w\u003E": 4477,
    "vences\u003C/w\u003E": 4478,
    "quinto\u003C/w\u003E": 4479,
    "derrot\u00F3\u003C/w\u003E": 4480,
    "firm\u00F3\u003C/w\u003E": 4481,
    "perteneciente\u003C/w\u003E": 4482,
    "rinconada\u003C/w\u003E": 4483,
    "candelaria\u003C/w\u003E": 4484,
    "corpus\u003C/w\u003E": 4485,
    "ap\u00F3stoles\u003C/w\u003E": 4486,
    "m\u00E1rti": 4487,
    "m\u00E1rtires\u003C/w\u003E": 4488,
    "inmediatamente\u003C/w\u003E": 4489,
    "derri": 4490,
    "derrib": 4491,
    "derrib\u00F3\u003C/w\u003E": 4492,
    "ausente\u003C/w\u003E": 4493,
    "gobern\u00F3\u003C/w\u003E": 4494,
    "manteni\u00E9ndose\u003C/w\u003E": 4495,
    "legalmente\u003C/w\u003E": 4496,
    "rebelde\u003C/w\u003E": 4497,
    "pav\u00F3n\u003C/w\u003E": 4498,
    "1861\u003C/w\u003E": 4499,
    "columnas\u003C/w\u003E": 4500,
    "brasile\u00F1as\u003C/w\u003E": 4501,
    "l\u00EDderes\u003C/w\u003E": 4502,
    "nicanor\u003C/w\u003E": 4503,
    "lanz\u00F3\u003C/w\u003E": 4504,
    "continuaron\u003C/w\u003E": 4505,
    "1872\u003C/w\u003E": 4506,
    "conservando\u003C/w\u003E": 4507,
    "espor\u00E1dicos\u003C/w\u003E": 4508,
    "revoluciones\u003C/w\u003E": 4509,
    "civil\u003C/w\u003E": 4510,
    "tard\u00EDa\u003C/w\u003E": 4511,
    "193": 4512,
    "1933\u003C/w\u003E": 4513,
    "breve\u003C/w\u003E": 4514,
    "liderada\u003C/w\u003E": 4515,
    "1946\u003C/w\u003E": 4516,
    "triun": 4517,
    "triunf": 4518,
    "triunf\u00F3\u003C/w\u003E": 4519,
    "c\u00EDvi": 4520,
    "c\u00EDvica\u003C/w\u003E": 4521,
    "llam\u00F3\u003C/w\u003E": 4522,
    "intervino\u003C/w\u003E": 4523,
    "blas\u003C/w\u003E": 4524,
    "vega\u003C/w\u003E": 4525,
    "filomeno\u003C/w\u003E": 4526,
    "sellaron\u003C/w\u003E": 4527,
    "vic": 4528,
    "victori": 4529,
    "victorias\u003C/w\u003E": 4530,
    "continu\u00F3\u003C/w\u003E": 4531,
    "hegem": 4532,
    "hegem\u00F3ni": 4533,
    "hegem\u00F3nicos\u003C/w\u003E": 4534,
    "coincidentemente\u003C/w\u003E": 4535,
    "justici": 4536,
    "justicialista\u003C/w\u003E": 4537,
    "lograba\u003C/w\u003E": 4538,
    "gobiernos\u003C/w\u003E": 4539,
    "colombi\u003C/w\u003E": 4540,
    "bolivi": 4541,
    "boliviano\u003C/w\u003E": 4542,
    "interconec": 4543,
    "interconectado\u003C/w\u003E": 4544,
    "macrosistema\u003C/w\u003E": 4545,
    "aproximado\u003C/w\u003E": 4546,
    "60": 4547,
    "60000\u003C/w\u003E": 4548,
    "816": 4549,
    "8166": 4550,
    "81667\u003C/w\u003E": 4551,
    "h\u00E1bitats\u003C/w\u003E": 4552,
    "blastocerus\u003C/w\u003E": 4553,
    "ozotoceros\u003C/w\u003E": 4554,
    "brachy": 4555,
    "brachyurus\u003C/w\u003E": 4556,
    "anaconda\u003C/w\u003E": 4557,
    "aulladores\u003C/w\u003E": 4558,
    "caray\u00E1s\u003C/w\u003E": 4559,
    "pirin": 4560,
    "pirincho\u003C/w\u003E": 4561,
    "ic": 4562,
    "icti": 4563,
    "ictiofauna\u003C/w\u003E": 4564,
    "sobresaliendo\u003C/w\u003E": 4565,
    "armados\u003C/w\u003E": 4566,
    "surub\u00EDes\u003C/w\u003E": 4567,
    "mojar": 4568,
    "mojarras\u003C/w\u003E": 4569,
    "tarariras\u003C/w\u003E": 4570,
    "habiendo\u003C/w\u003E": 4571,
    "exuberante\u003C/w\u003E": 4572,
    "aut\u00E9n": 4573,
    "aut\u00E9nticas\u003C/w\u003E": 4574,
    "flotantes\u003C/w\u003E": 4575,
    "extensos\u003C/w\u003E": 4576,
    "pirizales\u003C/w\u003E": 4577,
    "instituida\u003C/w\u003E": 4578,
    "depende\u003C/w\u003E": 4579,
    "ramsar\u003C/w\u003E": 4580,
    "flan": 4581,
    "flanque": 4582,
    "flanqueada\u003C/w\u003E": 4583,
    "geol\u00F3gicamente\u003C/w\u003E": 4584,
    "diverso\u003C/w\u003E": 4585,
    "\u2030\u003C/w\u003E": 4586,
    "exactitud\u003C/w\u003E": 4587,
    "excav": 4588,
    "excavado\u003C/w\u003E": 4589,
    "sustrato\u003C/w\u003E": 4590,
    "fracturas\u003C/w\u003E": 4591,
    "puntos\u003C/w\u003E": 4592,
    "secci": 4593,
    "secciona\u003C/w\u003E": 4594,
    "diagonalmente\u003C/w\u003E": 4595,
    "totalidad\u003C/w\u003E": 4596,
    "interseca\u003C/w\u003E": 4597,
    "90\u003C/w\u003E": 4598,
    "bas\u00E1l": 4599,
    "bas\u00E1ltica\u003C/w\u003E": 4600,
    "considerable\u003C/w\u003E": 4601,
    "desviaba\u003C/w\u003E": 4602,
    "antiguamente\u003C/w\u003E": 4603,
    "llev\u00E1ndolo\u003C/w\u003E": 4604,
    "baj\u00ED": 4605,
    "baj\u00EDos\u003C/w\u003E": 4606,
    "morfolo": 4607,
    "morfolog\u00EDa\u003C/w\u003E": 4608,
    "e\u00F3lica\u003C/w\u003E": 4609,
    "ayudado\u003C/w\u003E": 4610,
    "deprimir\u003C/w\u003E": 4611,
    "cuchi": 4612,
    "cuchillas\u003C/w\u003E": 4613,
    "surcan\u003C/w\u003E": 4614,
    "acumuladas\u003C/w\u003E": 4615,
    "plioceno\u003C/w\u003E": 4616,
    "pleistoceno\u003C/w\u003E": 4617,
    "bot\u00E1nica\u003C/w\u003E": 4618,
    "cuerpos\u003C/w\u003E": 4619,
    "marcadamente\u003C/w\u003E": 4620,
    "fluye\u003C/w\u003E": 4621,
    "respectivamente\u003C/w\u003E": 4622,
    "evaporaci\u00F3n\u003C/w\u003E": 4623,
    "conectados\u003C/w\u003E": 4624,
    "excede\u003C/w\u003E": 4625,
    "variando\u003C/w\u003E": 4626,
    "cota\u003C/w\u003E": 4627,
    "geomorfol\u00F3": 4628,
    "geomorfol\u00F3gicos\u003C/w\u003E": 4629,
    "diversa\u003C/w\u003E": 4630,
    "conectadas\u003C/w\u003E": 4631,
    "rodeadas\u003C/w\u003E": 4632,
    "ambientes\u003C/w\u003E": 4633,
    "representados\u003C/w\u003E": 4634,
    "perif\u00E9ricas\u003C/w\u003E": 4635,
    "semiane": 4636,
    "semianegadas\u003C/w\u003E": 4637,
    "l\u00F3ticas\u003C/w\u003E": 4638,
    "representadas\u003C/w\u003E": 4639,
    "conectan\u003C/w\u003E": 4640,
    "endicadas\u003C/w\u003E": 4641,
    "embalsadas\u003C/w\u003E": 4642,
    "madrejones\u003C/w\u003E": 4643,
    "selv": 4644,
    "selv\u00E1tica\u003C/w\u003E": 4645,
    "distinguirse\u003C/w\u003E": 4646,
    "amplias\u003C/w\u003E": 4647,
    "ep\u00F3nima\u003C/w\u003E": 4648,
    "alcanzar\u003C/w\u003E": 4649,
    "alternan\u003C/w\u003E": 4650,
    "anegable\u003C/w\u003E": 4651,
    "anegado\u003C/w\u003E": 4652,
    "perfil\u003C/w\u003E": 4653,
    "constantemente\u003C/w\u003E": 4654,
    "sumado\u003C/w\u003E": 4655,
    "visual\u003C/w\u003E": 4656,
    "semisumer": 4657,
    "semisumergida\u003C/w\u003E": 4658,
    "enmara\u00F1": 4659,
    "enmara\u00F1adas\u003C/w\u003E": 4660,
    "flotante\u003C/w\u003E": 4661,
    "acumulaci\u00F3n\u003C/w\u003E": 4662,
    "solidez\u003C/w\u003E": 4663,
    "orientaci\u00F3n\u003C/w\u003E": 4664,
    "extremadamente\u003C/w\u003E": 4665,
    "subtropicales\u003C/w\u003E": 4666,
    "atmos": 4667,
    "atmosf\u00E9rica\u003C/w\u003E": 4668,
    "perenne\u003C/w\u003E": 4669,
    "m\u00E1ximas\u003C/w\u003E": 4670,
    "rondan\u003C/w\u003E": 4671,
    "difu": 4672,
    "difusamente\u003C/w\u003E": 4673,
    "anteguran": 4674,
    "anteguran\u00EDes\u003C/w\u003E": 4675,
    "fuerza\u003C/w\u003E": 4676,
    "xv\u003C/w\u003E": 4677,
    "invadieron\u003C/w\u003E": 4678,
    "invasores\u003C/w\u003E": 4679,
    "indo": 4680,
    "indoamericanos\u003C/w\u003E": 4681,
    "llamaron\u003C/w\u003E": 4682,
    "mocoret\u00E1s\u003C/w\u003E": 4683,
    "canibalismo\u003C/w\u003E": 4684,
    "varones\u003C/w\u003E": 4685,
    "resultaban\u003C/w\u003E": 4686,
    "obst": 4687,
    "obst\u00E1culo\u003C/w\u003E": 4688,
    "expansi": 4689,
    "expansionismo\u003C/w\u003E": 4690,
    "supuso\u003C/w\u003E": 4691,
    "dificultad\u003C/w\u003E": 4692,
    "remontan\u003C/w\u003E": 4693,
    "colindantes\u003C/w\u003E": 4694,
    "consideraba\u003C/w\u003E": 4695,
    "inhabitable\u003C/w\u003E": 4696,
    "forajidos\u003C/w\u003E": 4697,
    "sustento\u003C/w\u003E": 4698,
    "mariscadores\u003C/w\u003E": 4699,
    "cient\u00ED": 4700,
    "cient\u00EDfica\u003C/w\u003E": 4701,
    "alci": 4702,
    "alcide\u003C/w\u003E": 4703,
    "orbig": 4704,
    "orbigny\u003C/w\u003E": 4705,
    "franc\u00E9s\u003C/w\u003E": 4706,
    "visit\u00F3\u003C/w\u003E": 4707,
    "sudam\u00E9rica\u003C/w\u003E": 4708,
    "encargada\u003C/w\u003E": 4709,
    "mus": 4710,
    "mus\u00E9": 4711,
    "mus\u00E9e\u003C/w\u003E": 4712,
    "histoi": 4713,
    "histoire\u003C/w\u003E": 4714,
    "voyage\u003C/w\u003E": 4715,
    "dans\u003C/w\u003E": 4716,
    "m\u00E9ridionale\u003C/w\u003E": 4717,
    "observaciones\u003C/w\u003E": 4718,
    "turbu": 4719,
    "turbulenta\u003C/w\u003E": 4720,
    "negoci": 4721,
    "negociaciones\u003C/w\u003E": 4722,
    "estancia\u003C/w\u003E": 4723,
    "poria": 4724,
    "poriah\u00FA\u003C/w\u003E": 4725,
    "inaugur\u00F3\u003C/w\u003E": 4726,
    "sitios\u003C/w\u003E": 4727,
    "sum\u00F3\u003C/w\u003E": 4728,
    "reticencias\u003C/w\u003E": 4729,
    "institucional\u003C/w\u003E": 4730,
    "dudoso\u003C/w\u003E": 4731,
    "jugaron\u003C/w\u003E": 4732,
    "fracasos\u003C/w\u003E": 4733,
    "promov\u00EDa\u003C/w\u003E": 4734,
    "inundar\u003C/w\u003E": 4735,
    "incrementar\u003C/w\u003E": 4736,
    "ecol\u00F3gicos\u003C/w\u003E": 4737,
    "intervenir\u003C/w\u003E": 4738,
    "consecuencias\u003C/w\u003E": 4739,
    "diez": 4740,
    "diezmada\u003C/w\u003E": 4741,
    "incursiones\u003C/w\u003E": 4742,
    "defensivas\u003C/w\u003E": 4743,
    "predadores\u003C/w\u003E": 4744,
    "utilizaba\u003C/w\u003E": 4745,
    "marroquiner\u00EDa\u003C/w\u003E": 4746,
    "ciervos\u003C/w\u003E": 4747,
    "ries": 4748,
    "riesgo\u003C/w\u003E": 4749,
    "alteraciones\u003C/w\u003E": 4750,
    "combinaci\u00F3n\u003C/w\u003E": 4751,
    "reclamos\u003C/w\u003E": 4752,
    "insistentes\u003C/w\u003E": 4753,
    "imposibilidad\u003C/w\u003E": 4754,
    "concertar\u003C/w\u003E": 4755,
    "ecol\u00F3gico\u003C/w\u003E": 4756,
    "declarar\u003C/w\u003E": 4757,
    "intenci\u00F3n\u003C/w\u003E": 4758,
    "ex\u00F3": 4759,
    "ex\u00F3ticas\u003C/w\u003E": 4760,
    "reglament\u00F3\u003C/w\u003E": 4761,
    "dotaci\u00F3n\u003C/w\u003E": 4762,
    "esfuer": 4763,
    "esfuerzo\u003C/w\u003E": 4764,
    "combatir\u003C/w\u003E": 4765,
    "seriamente\u003C/w\u003E": 4766,
    "afectado\u003C/w\u003E": 4767,
    "transcurri": 4768,
    "transcurridas\u003C/w\u003E": 4769,
    "influy\u00F3\u003C/w\u003E": 4770,
    "1994\u003C/w\u003E": 4771,
    "anegamiento\u003C/w\u003E": 4772,
    "94\u003C/w\u003E": 4773,
    "regul\u00F3\u003C/w\u003E": 4774,
    "unidades\u003C/w\u003E": 4775,
    "hect": 4776,
    "hect\u00E1reas\u003C/w\u003E": 4777,
    "inundadas\u003C/w\u003E": 4778,
    "ambientalista\u003C/w\u003E": 4779,
    "estadouni": 4780,
    "estadouniden": 4781,
    "estadounidense\u003C/w\u003E": 4782,
    "dou": 4783,
    "doug": 4784,
    "douglas\u003C/w\u003E": 4785,
    "tomp": 4786,
    "tompkin": 4787,
    "tompkins\u003C/w\u003E": 4788,
    "delegaci\u00F3n\u003C/w\u003E": 4789,
    "viu": 4790,
    "viuda\u003C/w\u003E": 4791,
    "kristine\u003C/w\u003E": 4792,
    "mc": 4793,
    "mcdivi": 4794,
    "mcdivit": 4795,
    "mcdivitt\u003C/w\u003E": 4796,
    "2018\u003C/w\u003E": 4797,
    "anunci\u00F3\u003C/w\u003E": 4798,
    "frondosa\u003C/w\u003E": 4799,
    "eich": 4800,
    "eichhorni": 4801,
    "eichhornia\u003C/w\u003E": 4802,
    "sp": 4803,
    "spp\u003C/w\u003E": 4804,
    "hydroc": 4805,
    "hydrocle": 4806,
    "hydrocley": 4807,
    "hydrocleys\u003C/w\u003E": 4808,
    "nym": 4809,
    "nymp": 4810,
    "nympho": 4811,
    "nymphoides\u003C/w\u003E": 4812,
    "cabomba\u003C/w\u003E": 4813,
    "caroliniana\u003C/w\u003E": 4814,
    "junco\u003C/w\u003E": 4815,
    "scir": 4816,
    "scirpus\u003C/w\u003E": 4817,
    "californicus\u003C/w\u003E": 4818,
    "achiras\u003C/w\u003E": 4819,
    "pehu": 4820,
    "pehuajos\u003C/w\u003E": 4821,
    "thali": 4822,
    "thalia\u003C/w\u003E": 4823,
    "irup": 4824,
    "irup\u00E9s\u003C/w\u003E": 4825,
    "nen\u00FAfares\u003C/w\u003E": 4826,
    "liri": 4827,
    "lirios\u003C/w\u003E": 4828,
    "jacin": 4829,
    "jacintos\u003C/w\u003E": 4830,
    "deposita\u003C/w\u003E": 4831,
    "llevadas\u003C/w\u003E": 4832,
    "crezcan\u003C/w\u003E": 4833,
    "arbustos\u003C/w\u003E": 4834,
    "ceibo\u003C/w\u003E": 4835,
    "\u00F1angapi": 4836,
    "\u00F1angapiri\u003C/w\u003E": 4837,
    "pitanga\u003C/w\u003E": 4838,
    "catigu\u00E1\u003C/w\u003E": 4839,
    "alecr\u00ED": 4840,
    "alecr\u00EDn\u003C/w\u003E": 4841,
    "representativas\u003C/w\u003E": 4842,
    "higrofilos\u003C/w\u003E": 4843,
    "transforma\u003C/w\u003E": 4844,
    "apareciendo\u003C/w\u003E": 4845,
    "densas\u003C/w\u003E": 4846,
    "arbole": 4847,
    "arboledas\u003C/w\u003E": 4848,
    "algarrobo\u003C/w\u003E": 4849,
    "affinis\u003C/w\u003E": 4850,
    "blastoceros\u003C/w\u003E": 4851,
    "dichotomous\u003C/w\u003E": 4852,
    "puku\u003C/w\u003E": 4853,
    "ozotocerus\u003C/w\u003E": 4854,
    "consideradas\u003C/w\u003E": 4855,
    "inscri": 4856,
    "inscrip": 4857,
    "inscriptas\u003C/w\u003E": 4858,
    "ap\u00E9n": 4859,
    "ap\u00E9ndice\u003C/w\u003E": 4860,
    "proh\u00ED": 4861,
    "proh\u00EDbe\u003C/w\u003E": 4862,
    "absoluto\u003C/w\u003E": 4863,
    "t\u00EDmidos\u003C/w\u003E": 4864,
    "protegidos\u003C/w\u003E": 4865,
    "brachi": 4866,
    "brachiurus\u003C/w\u003E": 4867,
    "pariente\u003C/w\u003E": 4868,
    "onci": 4869,
    "oncifelis\u003C/w\u003E": 4870,
    "geoff": 4871,
    "geoffro": 4872,
    "geoffroy": 4873,
    "geoffroyi\u003C/w\u003E": 4874,
    "roedor\u003C/w\u003E": 4875,
    "herb": 4876,
    "herb\u00ED": 4877,
    "herb\u00EDvoro\u003C/w\u003E": 4878,
    "adulto\u003C/w\u003E": 4879,
    "70\u003C/w\u003E": 4880,
    "kg\u003C/w\u003E": 4881,
    "mide\u003C/w\u003E": 4882,
    "cm\u003C/w\u003E": 4883,
    "ojos\u003C/w\u003E": 4884,
    "desarrolladas\u003C/w\u003E": 4885,
    "hendido\u003C/w\u003E": 4886,
    "natatoria\u003C/w\u003E": 4887,
    "denso\u003C/w\u003E": 4888,
    "\u00E1spero\u003C/w\u003E": 4889,
    "rep": 4890,
    "repti": 4891,
    "reptiles\u003C/w\u003E": 4892,
    "omni": 4893,
    "omnipresentes\u003C/w\u003E": 4894,
    "f\u00E1ci": 4895,
    "f\u00E1ciles\u003C/w\u003E": 4896,
    "serpientes\u003C/w\u003E": 4897,
    "both": 4898,
    "bothrops\u003C/w\u003E": 4899,
    "alternatus\u003C/w\u003E": 4900,
    "cro": 4901,
    "crotalus\u003C/w\u003E": 4902,
    "durissus\u003C/w\u003E": 4903,
    "terrificus\u003C/w\u003E": 4904,
    "py": 4905,
    "pyr": 4906,
    "pyrr": 4907,
    "pyrrhoc": 4908,
    "pyrrhocry": 4909,
    "pyrrhocryptus\u003C/w\u003E": 4910,
    "inofensivas\u003C/w\u003E": 4911,
    "hydrod": 4912,
    "hydrodynastes\u003C/w\u003E": 4913,
    "\u00F1acanin": 4914,
    "\u00F1acanin\u00E1\u003C/w\u003E": 4915,
    "falsa\u003C/w\u003E": 4916,
    "tachymenis\u003C/w\u003E": 4917,
    "peruvi": 4918,
    "peruviana\u003C/w\u003E": 4919,
    "constric": 4920,
    "constrictora\u003C/w\u003E": 4921,
    "tortugas\u003C/w\u003E": 4922,
    "lagartos\u003C/w\u003E": 4923,
    "lagarto\u003C/w\u003E": 4924,
    "tupinambis\u003C/w\u003E": 4925,
    "tegui": 4926,
    "teguixin\u003C/w\u003E": 4927,
    "anfibios\u003C/w\u003E": 4928,
    "yurum\u00ED\u003C/w\u003E": 4929,
    "myr": 4930,
    "myrmecop": 4931,
    "myrmecophaga\u003C/w\u003E": 4932,
    "tridac": 4933,
    "tridact": 4934,
    "tridacty": 4935,
    "tridactyla\u003C/w\u003E": 4936,
    "humano\u003C/w\u003E": 4937,
    "mborev\u00ED\u003C/w\u003E": 4938,
    "terrestris\u003C/w\u003E": 4939,
    "tajacu\u003C/w\u003E": 4940,
    "pteronura\u003C/w\u003E": 4941,
    "brasilien": 4942,
    "brasiliensis\u003C/w\u003E": 4943,
    "observarse\u003C/w\u003E": 4944,
    "alou": 4945,
    "alouat": 4946,
    "alouatta\u003C/w\u003E": 4947,
    "observado\u003C/w\u003E": 4948,
    "reaparici\u00F3n\u003C/w\u003E": 4949,
    "leopar": 4950,
    "leopardus\u003C/w\u003E": 4951,
    "pardalis\u003C/w\u003E": 4952,
    "reintroducci\u00F3n\u003C/w\u003E": 4953,
    "cr\u00EDas\u003C/w\u003E": 4954,
    "volver\u00EDa\u003C/w\u003E": 4955,
    "superpre": 4956,
    "superpredador\u003C/w\u003E": 4957,
    "hembra\u003C/w\u003E": 4958,
    "ornitol\u00F3": 4959,
    "ornitol\u00F3gica\u003C/w\u003E": 4960,
    "vul": 4961,
    "vulnerabi": 4962,
    "vulnerabilidad\u003C/w\u003E": 4963,
    "alectrurus\u003C/w\u003E": 4964,
    "sporophi": 4965,
    "sporophila\u003C/w\u003E": 4966,
    "zelichi\u003C/w\u003E": 4967,
    "tordo\u003C/w\u003E": 4968,
    "xant": 4969,
    "xanthop": 4970,
    "xanthopsar\u003C/w\u003E": 4971,
    "flavus\u003C/w\u003E": 4972,
    "pampeano\u003C/w\u003E": 4973,
    "asthenes\u003C/w\u003E": 4974,
    "hud": 4975,
    "hudsoni\u003C/w\u003E": 4976,
    "spartono": 4977,
    "spartonoica\u003C/w\u003E": 4978,
    "maluroides\u003C/w\u003E": 4979,
    "cardenal\u003C/w\u003E": 4980,
    "gubernatrix\u003C/w\u003E": 4981,
    "guacamayo\u003C/w\u003E": 4982,
    "chlorop": 4983,
    "chloropterus\u003C/w\u003E": 4984,
    "mui": 4985,
    "muit\u00FA\u003C/w\u003E": 4986,
    "cra": 4987,
    "crax\u003C/w\u003E": 4988,
    "fasci": 4989,
    "fasciolata\u003C/w\u003E": 4990,
    "consideran\u003C/w\u003E": 4991,
    "macrosc\u00F3": 4992,
    "macrosc\u00F3pica\u003C/w\u003E": 4993,
    "formatos\u003C/w\u003E": 4994,
    "para\u00EDso\u003C/w\u003E": 4995,
    "vegetales\u003C/w\u003E": 4996,
    "conciencia\u003C/w\u003E": 4997,
    "ecol\u00F3gica\u003C/w\u003E": 4998,
    "conservacionista\u003C/w\u003E": 4999,
    "defrau": 5000,
    "defraudar\u00E1\u003C/w\u003E": 5001,
    "pr\u00F3spera\u003C/w\u003E": 5002,
    "abordar\u003C/w\u003E": 5003,
    "magn": 5004,
    "magn\u00ED": 5005,
    "magn\u00EDfica\u003C/w\u003E": 5006,
    "elegir\u003C/w\u003E": 5007,
    "correctamente\u003C/w\u003E": 5008,
    "instalado\u003C/w\u003E": 5009,
    "hoteleros\u003C/w\u003E": 5010,
    "solucionar\u00E1n\u003C/w\u003E": 5011,
    "impone\u003C/w\u003E": 5012,
    "alojami": 5013,
    "alojamientos\u003C/w\u003E": 5014,
    "muelle\u003C/w\u003E": 5015,
    "kaya": 5016,
    "kayak\u003C/w\u003E": 5017,
    "cabalgata\u003C/w\u003E": 5018,
    "brinda\u003C/w\u003E": 5019,
    "descubrimiento\u003C/w\u003E": 5020,
    "empren": 5021,
    "emprender\u003C/w\u003E": 5022,
    "guiada\u003C/w\u003E": 5023,
    "bird": 5024,
    "birdw": 5025,
    "birdwat": 5026,
    "birdwatching\u003C/w\u003E": 5027,
    "recomienda\u003C/w\u003E": 5028,
    "asegurarse\u003C/w\u003E": 5029,
    "obtenga\u003C/w\u003E": 5030,
    "satisfacci\u00F3n\u003C/w\u003E": 5031,
    "extrema\u003C/w\u003E": 5032,
    "mirada\u003C/w\u003E": 5033,
    "seg": 5034,
    "segmento\u003C/w\u003E": 5035,
    "estancias\u003C/w\u003E": 5036,
    "bell\u00ED": 5037,
    "bell\u00EDsima\u003C/w\u003E": 5038,
    "comodi": 5039,
    "comodidades\u003C/w\u003E": 5040,
    "hoteler\u00EDa\u003C/w\u003E": 5041,
    "guardaparques\u003C/w\u003E": 5042,
    "embarcaderos\u003C/w\u003E": 5043,
    "carambola\u003C/w\u003E": 5044,
    "carretera\u003C/w\u003E": 5045,
    "ilustrativo\u003C/w\u003E": 5046,
    "biolog\u00EDa\u003C/w\u003E": 5047,
    "senderos\u003C/w\u003E": 5048,
    "oril": 5049,
    "orillando\u003C/w\u003E": 5050,
    "aficionado\u003C/w\u003E": 5051,
    "t\u00EDmi": 5052,
    "t\u00EDmidas\u003C/w\u003E": 5053,
    "esconden\u003C/w\u003E": 5054,
    "ofrecen\u003C/w\u003E": 5055,
    "observadores\u003C/w\u003E": 5056,
    "clim\u00E1tico\u003C/w\u003E": 5057,
    "insectos\u003C/w\u003E": 5058,
    "hospitalaria\u003C/w\u003E": 5059,
    "planteado\u003C/w\u003E": 5060,
    "13": 5061,
    "130": 5062,
    "1300": 5063,
    "1300km\u003C/w\u003E": 5064,
    "varie": 5065,
    "variedades\u003C/w\u003E": 5066,
    "paisaj\u00ED": 5067,
    "paisaj\u00EDsticas\u003C/w\u003E": 5068,
    "lacustre\u003C/w\u003E": 5069,
    "palustre\u003C/w\u003E": 5070,
    "adyacen": 5071,
    "adyacencias\u003C/w\u003E": 5072,
    "ecotur\u00EDstica\u003C/w\u003E": 5073,
    "fabulosa\u003C/w\u003E": 5074,
    "protegi": 5075,
    "protegidas\u003C/w\u003E": 5076,
    "atractivas\u003C/w\u003E": 5077,
    "iniciarse\u003C/w\u003E": 5078,
    "cualquiera\u003C/w\u003E": 5079,
    "extremos\u003C/w\u003E": 5080,
    "otorgar\u00E1\u003C/w\u003E": 5081,
    "integral\u003C/w\u003E": 5082,
    "iniciar\u003C/w\u003E": 5083,
    "manifestaci\u00F3n\u003C/w\u003E": 5084,
    "desempe\u00F1": 5085,
    "desempe\u00F1ado\u003C/w\u003E": 5086,
    "idiosin": 5087,
    "idiosincrasi": 5088,
    "idiosincrasia\u003C/w\u003E": 5089,
    "controversi": 5090,
    "controversia\u003C/w\u003E": 5091,
    "vertientes\u003C/w\u003E": 5092,
    "guaran\u00EDtico\u003C/w\u003E": 5093,
    "inmigraciones\u003C/w\u003E": 5094,
    "molde": 5095,
    "moldearon\u003C/w\u003E": 5096,
    "colectivos\u003C/w\u003E": 5097,
    "transmitidas\u003C/w\u003E": 5098,
    "goza\u003C/w\u003E": 5099,
    "cultiva\u003C/w\u003E": 5100,
    "ga\u00FA": 5101,
    "ga\u00FAcha\u003C/w\u003E": 5102,
    "chilena\u003C/w\u003E": 5103,
    "habla\u003C/w\u003E": 5104,
    "espiritual\u003C/w\u003E": 5105,
    "filos\u00F3fico\u003C/w\u003E": 5106,
    "plegarias\u003C/w\u003E": 5107,
    "ceremonia\u003C/w\u003E": 5108,
    "participa\u003C/w\u003E": 5109,
    "mbara": 5110,
    "mbaraka\u003C/w\u003E": 5111,
    "takuapu\u003C/w\u003E": 5112,
    "r\u00EDtmico\u003C/w\u003E": 5113,
    "alternadas\u003C/w\u003E": 5114,
    "sermones\u003C/w\u003E": 5115,
    "s\u00EDn": 5116,
    "s\u00EDntesis\u003C/w\u003E": 5117,
    "transmi": 5118,
    "transmiten\u003C/w\u003E": 5119,
    "m\u00EDticos\u003C/w\u003E": 5120,
    "recordar\u003C/w\u003E": 5121,
    "alegr\u00EDa\u003C/w\u003E": 5122,
    "contacto\u003C/w\u003E": 5123,
    "desterrar\u003C/w\u003E": 5124,
    "fuerzas\u003C/w\u003E": 5125,
    "malignas\u003C/w\u003E": 5126,
    "propiciatorio\u003C/w\u003E": 5127,
    "yv": 5128,
    "yva": 5129,
    "yvaku": 5130,
    "yvakuera\u003C/w\u003E": 5131,
    "saludar\u003C/w\u003E": 5132,
    "temit": 5133,
    "temit\u00FF": 5134,
    "temit\u00FFn": 5135,
    "temit\u00FFnguera\u003C/w\u003E": 5136,
    "ceremonias\u003C/w\u003E": 5137,
    "guasu\u003C/w\u003E": 5138,
    "ceremonial\u003C/w\u003E": 5139,
    "batea\u003C/w\u003E": 5140,
    "k\u00E3": 5141,
    "k\u00E3gu": 5142,
    "k\u00E3guy\u003C/w\u003E": 5143,
    "fermentada\u003C/w\u003E": 5144,
    "susana\u003C/w\u003E": 5145,
    "piasco\u003C/w\u003E": 5146,
    "otorgaron\u003C/w\u003E": 5147,
    "preocuparon\u003C/w\u003E": 5148,
    "adaptar": 5149,
    "adaptarla\u003C/w\u003E": 5150,
    "capacidades\u003C/w\u003E": 5151,
    "utilizada\u003C/w\u003E": 5152,
    "catequesis\u003C/w\u003E": 5153,
    "interpretar\u003C/w\u003E": 5154,
    "lit\u00FA": 5155,
    "lit\u00FAr": 5156,
    "lit\u00FArgicas\u003C/w\u003E": 5157,
    "crea\u003C/w\u003E": 5158,
    "ense\u00F1ado\u003C/w\u003E": 5159,
    "empe\u00F1o\u003C/w\u003E": 5160,
    "enviaban\u003C/w\u003E": 5161,
    "instruyera\u003C/w\u003E": 5162,
    "ense\u00F1aba\u003C/w\u003E": 5163,
    "tior": 5164,
    "tiorba\u003C/w\u003E": 5165,
    "viol\u00ED": 5166,
    "viol\u00EDn\u003C/w\u003E": 5167,
    "chirim\u00EDa\u003C/w\u003E": 5168,
    "familiarizado\u003C/w\u003E": 5169,
    "salterio\u003C/w\u003E": 5170,
    "aprendieron\u003C/w\u003E": 5171,
    "tocarlo\u003C/w\u003E": 5172,
    "construir": 5173,
    "construirlo\u003C/w\u003E": 5174,
    "frago": 5175,
    "fragotes\u003C/w\u003E": 5176,
    "mezclada\u003C/w\u003E": 5177,
    "conducido\u003C/w\u003E": 5178,
    "pay\u00E9\u003C/w\u003E": 5179,
    "convertirse\u003C/w\u003E": 5180,
    "6x": 5181,
    "6x8\u003C/w\u003E": 5182,
    "emplea\u003C/w\u003E": 5183,
    "mamb": 5184,
    "mamb\u00ED\u003C/w\u003E": 5185,
    "takup": 5186,
    "takup\u00EF": 5187,
    "takup\u00EF\u003C/w\u003E": 5188,
    "percusi\u00F3n\u003C/w\u003E": 5189,
    "tambu\u003C/w\u003E": 5190,
    "conducci\u00F3n\u003C/w\u003E": 5191,
    "zini\u003C/w\u003E": 5192,
    "pavana\u003C/w\u003E": 5193,
    "gallar": 5194,
    "gallarda\u003C/w\u003E": 5195,
    "introduci": 5196,
    "introducidas\u003C/w\u003E": 5197,
    "epicentro\u003C/w\u003E": 5198,
    "constru\u00EDa\u003C/w\u003E": 5199,
    "copiando\u003C/w\u003E": 5200,
    "perfeccionado\u003C/w\u003E": 5201,
    "alemania\u003C/w\u003E": 5202,
    "afrodescen": 5203,
    "afrodescendientes\u003C/w\u003E": 5204,
    "t\u00E1c": 5205,
    "t\u00E1ctica\u003C/w\u003E": 5206,
    "tenerlos\u003C/w\u003E": 5207,
    "calmos\u003C/w\u003E": 5208,
    "reduci": 5209,
    "reduciendo\u003C/w\u003E": 5210,
    "motines\u003C/w\u003E": 5211,
    "revueltas\u003C/w\u003E": 5212,
    "suced\u00EDa\u003C/w\u003E": 5213,
    "1640\u003C/w\u003E": 5214,
    "sirvi": 5215,
    "sirvientes\u003C/w\u003E": 5216,
    "integraron\u003C/w\u003E": 5217,
    "permitir": 5218,
    "permitirla\u003C/w\u003E": 5219,
    "censurar": 5220,
    "censurarla\u003C/w\u003E": 5221,
    "testimonios\u003C/w\u003E": 5222,
    "negreros\u003C/w\u003E": 5223,
    "obligaba\u003C/w\u003E": 5224,
    "danzar\u003C/w\u003E": 5225,
    "regularidad\u003C/w\u003E": 5226,
    "atendido\u003C/w\u003E": 5227,
    "huecos\u003C/w\u003E": 5228,
    "camb\u00E1\u003C/w\u003E": 5229,
    "baltazar\u003C/w\u003E": 5230,
    "cat\u00F3licos\u003C/w\u003E": 5231,
    "presididas\u003C/w\u003E": 5232,
    "actores\u003C/w\u003E": 5233,
    "adoptan\u003C/w\u003E": 5234,
    "sedente\u003C/w\u003E": 5235,
    "procli": 5236,
    "proclive\u003C/w\u003E": 5237,
    "inmovilidad\u003C/w\u003E": 5238,
    "1917\u003C/w\u003E": 5239,
    "padres\u003C/w\u003E": 5240,
    "marroqu\u00ED\u003C/w\u003E": 5241,
    "objetos\u003C/w\u003E": 5242,
    "cambiaron\u003C/w\u003E": 5243,
    "apariencia\u003C/w\u003E": 5244,
    "supo\u003C/w\u003E": 5245,
    "\u00E1lbu": 5246,
    "\u00E1lbumes\u003C/w\u003E": 5247,
    "grab\u00F3\u003C/w\u003E": 5248,
    "cuarteto\u003C/w\u003E": 5249,
    "canciones\u003C/w\u003E": 5250,
    "exitosas\u003C/w\u003E": 5251,
    "calandria\u003C/w\u003E": 5252,
    "\u00F1atita\u003C/w\u003E": 5253,
    "chir\u00FA\u003C/w\u003E": 5254,
    "tito\u003C/w\u003E": 5255,
    "guti\u00E9r": 5256,
    "guti\u00E9rrez\u003C/w\u003E": 5257,
    "zurda\u003C/w\u003E": 5258,
    "bajada\u003C/w\u003E": 5259,
    "estampa\u003C/w\u003E": 5260,
    "bodas\u003C/w\u003E": 5261,
    "ind\u00EDgena\u003C/w\u003E": 5262,
    "transformado\u003C/w\u003E": 5263,
    "sapucai\u003C/w\u003E": 5264,
    "europeista\u003C/w\u003E": 5265,
    "teclas\u003C/w\u003E": 5266,
    "albores\u003C/w\u003E": 5267,
    "transformaci\u00F3n\u003C/w\u003E": 5268,
    "establecidas\u003C/w\u003E": 5269,
    "advi": 5270,
    "advier": 5271,
    "advierten\u003C/w\u003E": 5272,
    "sorpren": 5273,
    "sorprendi": 5274,
    "sorprendidas\u003C/w\u003E": 5275,
    "pose\u00EDan\u003C/w\u003E": 5276,
    "rudimentarios\u003C/w\u003E": 5277,
    "acompa\u00F1ar\u003C/w\u003E": 5278,
    "rituales\u003C/w\u003E": 5279,
    "onomatop\u00E9": 5280,
    "onomatop\u00E9y": 5281,
    "onomatop\u00E9yicos\u003C/w\u003E": 5282,
    "europeos\u003C/w\u003E": 5283,
    "perdieron\u003C/w\u003E": 5284,
    "congo": 5285,
    "congoera\u003C/w\u003E": 5286,
    "hueso\u003C/w\u003E": 5287,
    "mbur\u00E9\u003C/w\u003E": 5288,
    "mimby\u003C/w\u003E": 5289,
    "antecedentes\u003C/w\u003E": 5290,
    "music\u00F3lo": 5291,
    "music\u00F3logos\u003C/w\u003E": 5292,
    "cord\u00F3": 5293,
    "cord\u00F3fono\u003C/w\u003E": 5294,
    "perdi\u00F3\u003C/w\u003E": 5295,
    "principio\u003C/w\u003E": 5296,
    "misional\u003C/w\u003E": 5297,
    "lut": 5298,
    "luther\u00EDa\u003C/w\u003E": 5299,
    "captar\u003C/w\u003E": 5300,
    "escribir": 5301,
    "escribirla\u003C/w\u003E": 5302,
    "sistematizarla\u003C/w\u003E": 5303,
    "reproducirla\u003C/w\u003E": 5304,
    "esencial\u003C/w\u003E": 5305,
    "po\u00E9ticas\u003C/w\u003E": 5306,
    "requer\u00EDan\u003C/w\u003E": 5307,
    "divid\u00EDa\u003C/w\u003E": 5308,
    "hemistiqui": 5309,
    "hemistiquios\u003C/w\u003E": 5310,
    "f\u00F3r": 5311,
    "f\u00F3rmu": 5312,
    "f\u00F3rmula\u003C/w\u003E": 5313,
    "\u002B\u003C/w\u003E": 5314,
    "romance\u003C/w\u003E": 5315,
    "emulado\u003C/w\u003E": 5316,
    "perfeccionaron\u003C/w\u003E": 5317,
    "charles\u003C/w\u003E": 5318,
    "whe": 5319,
    "wheat": 5320,
    "wheatstone\u003C/w\u003E": 5321,
    "sucesiv": 5322,
    "sucesivamente\u003C/w\u003E": 5323,
    "buschmann\u003C/w\u003E": 5324,
    "buss\u00F3n\u003C/w\u003E": 5325,
    "indicado\u003C/w\u003E": 5326,
    "copiado\u003C/w\u003E": 5327,
    "lograban\u003C/w\u003E": 5328,
    "actitud\u003C/w\u003E": 5329,
    "luz\u003C/w\u003E": 5330,
    "necesaria\u003C/w\u003E": 5331,
    "d\u00E9bi": 5332,
    "d\u00E9biles\u003C/w\u003E": 5333,
    "emporio\u003C/w\u003E": 5334,
    "arpas\u003C/w\u003E": 5335,
    "violines\u003C/w\u003E": 5336,
    "trompas\u003C/w\u003E": 5337,
    "furlon": 5338,
    "furlong\u003C/w\u003E": 5339,
    "fagotes\u003C/w\u003E": 5340,
    "herreros\u003C/w\u003E": 5341,
    "aprendido\u003C/w\u003E": 5342,
    "taladros\u003C/w\u003E": 5343,
    "aberturas\u003C/w\u003E": 5344,
    "ac\u00FAsticas\u003C/w\u003E": 5345,
    "apost\u00F3licas\u003C/w\u003E": 5346,
    "perduraron\u003C/w\u003E": 5347,
    "perfeccionados\u003C/w\u003E": 5348,
    "religiosas\u003C/w\u003E": 5349,
    "guer": 5350,
    "guerreras\u003C/w\u003E": 5351,
    "alegres\u003C/w\u003E": 5352,
    "mba": 5353,
    "mbae": 5354,
    "mbaep\u00FA\u003C/w\u003E": 5355,
    "mbop\u00FA\u003C/w\u003E": 5356,
    "purajh": 5357,
    "purajh\u00E9": 5358,
    "purajh\u00E9i\u003C/w\u003E": 5359,
    "derivaciones\u003C/w\u003E": 5360,
    "alcances\u003C/w\u003E": 5361,
    "amoa\u003C/w\u003E": 5362,
    "am\u00F4": 5363,
    "am\u00F4\u003C/w\u003E": 5364,
    "\u00F1amo\u003C/w\u003E": 5365,
    "nam\u00EA\u003C/w\u003E": 5366,
    "amap\u00EA\u003C/w\u003E": 5367,
    "isidro\u003C/w\u003E": 5368,
    "dicci": 5369,
    "diccionario\u003C/w\u003E": 5370,
    "provi": 5371,
    "proviene\u003C/w\u003E": 5372,
    "descubrieron\u003C/w\u003E": 5373,
    "ra\u00EDz\u003C/w\u003E": 5374,
    "mont\u00F3n\u003C/w\u003E": 5375,
    "bian": 5376,
    "bianchetti\u003C/w\u003E": 5377,
    "estudioso\u003C/w\u003E": 5378,
    "kaigu": 5379,
    "kaigu\u00E1\u003C/w\u003E": 5380,
    "habit\u00F3\u003C/w\u003E": 5381,
    "desplazamientos\u003C/w\u003E": 5382,
    "coreogr\u00E1ficos\u003C/w\u003E": 5383,
    "acompa\u00F1\u00E1ndose\u003C/w\u003E": 5384,
    "tambor\u003C/w\u003E": 5385,
    "perpetu": 5386,
    "perpetuado\u003C/w\u003E": 5387,
    "contempor\u00E1nea\u003C/w\u003E": 5388,
    "extranjerizante\u003C/w\u003E": 5389,
    "resisti\u00F3\u003C/w\u003E": 5390,
    "llamar": 5391,
    "llamarla\u003C/w\u003E": 5392,
    "polka\u003C/w\u003E": 5393,
    "novedad\u003C/w\u003E": 5394,
    "mazurca\u003C/w\u003E": 5395,
    "perfilarse\u003C/w\u003E": 5396,
    "nove": 5397,
    "novedades\u003C/w\u003E": 5398,
    "directamente\u003C/w\u003E": 5399,
    "invierte\u003C/w\u003E": 5400,
    "itinerario\u003C/w\u003E": 5401,
    "1804\u003C/w\u003E": 5402,
    "1805\u003C/w\u003E": 5403,
    "inno": 5404,
    "innov": 5405,
    "innovaci\u00F3n\u003C/w\u003E": 5406,
    "enlace\u003C/w\u003E": 5407,
    "bailaba\u003C/w\u003E": 5408,
    "r\u00E1pidos\u003C/w\u003E": 5409,
    "aproximaci\u00F3n\u003C/w\u003E": 5410,
    "aceptaci\u00F3n\u003C/w\u003E": 5411,
    "afinca\u003C/w\u003E": 5412,
    "polque": 5413,
    "polqueado\u003C/w\u003E": 5414,
    "an\u00F3nimo\u003C/w\u003E": 5415,
    "rodea\u003C/w\u003E": 5416,
    "\u00E9stos\u003C/w\u003E": 5417,
    "convertir": 5418,
    "convertirlos\u003C/w\u003E": 5419,
    "tradicionalmente\u003C/w\u003E": 5420,
    "pierda\u003C/w\u003E": 5421,
    "rapidez\u003C/w\u003E": 5422,
    "pausada\u003C/w\u003E": 5423,
    "aparejado\u003C/w\u003E": 5424,
    "conmoci\u00F3n\u003C/w\u003E": 5425,
    "distinta\u003C/w\u003E": 5426,
    "prieta\u003C/w\u003E": 5427,
    "quebradas\u003C/w\u003E": 5428,
    "cerru": 5429,
    "cerrutti\u003C/w\u003E": 5430,
    "\u00E9x": 5431,
    "\u00E9xodo\u003C/w\u003E": 5432,
    "obrajes\u003C/w\u003E": 5433,
    "acentuaci\u00F3n\u003C/w\u003E": 5434,
    "escucharla\u003C/w\u003E": 5435,
    "guitarras\u003C/w\u003E": 5436,
    "incorporado\u003C/w\u003E": 5437,
    "contrabajo\u003C/w\u003E": 5438,
    "contrapun": 5439,
    "contrapunte": 5440,
    "contrapunteo\u003C/w\u003E": 5441,
    "transcurre\u003C/w\u003E": 5442,
    "discogr\u00E1fica\u003C/w\u003E": 5443,
    "rca\u003C/w\u003E": 5444,
    "v\u00EDc": 5445,
    "v\u00EDctor\u003C/w\u003E": 5446,
    "ide": 5447,
    "idea\u003C/w\u003E": 5448,
    "congraci": 5449,
    "congraciarse\u003C/w\u003E": 5450,
    "int\u00E9rprete\u003C/w\u003E": 5451,
    "menudo\u003C/w\u003E": 5452,
    "tray\u00E9ndole\u003C/w\u003E": 5453,
    "induj": 5454,
    "indujera\u003C/w\u003E": 5455,
    "inusu": 5456,
    "inusual\u003C/w\u003E": 5457,
    "etimolog\u00EDa\u003C/w\u003E": 5458,
    "pudieron\u003C/w\u003E": 5459,
    "diego\u003C/w\u003E": 5460,
    "quiroga\u003C/w\u003E": 5461,
    "suscri": 5462,
    "suscribi": 5463,
    "suscribi\u00F3\u003C/w\u003E": 5464,
    "rotu": 5465,
    "rotulado\u003C/w\u003E": 5466,
    "titulado\u003C/w\u003E": 5467,
    "poty\u003C/w\u003E": 5468,
    "rp": 5469,
    "rpm\u003C/w\u003E": 5470,
    "625\u003C/w\u003E": 5471,
    "tard\u00F3\u003C/w\u003E": 5472,
    "sumarse\u003C/w\u003E": 5473,
    "corsini\u003C/w\u003E": 5474,
    "oriundo\u003C/w\u003E": 5475,
    "pioneros\u003C/w\u003E": 5476,
    "inconfundi": 5477,
    "inconfundibles\u003C/w\u003E": 5478,
    "huellas\u003C/w\u003E": 5479,
    "cumbi": 5480,
    "cumbia\u003C/w\u003E": 5481,
    "damasio\u003C/w\u003E": 5482,
    "esqui": 5483,
    "esquivel\u003C/w\u003E": 5484,
    "trayectori": 5485,
    "trayectoria\u003C/w\u003E": 5486,
    "monchito\u003C/w\u003E": 5487,
    "bailantas\u003C/w\u003E": 5488,
    "influyentes\u003C/w\u003E": 5489,
    "repertorio\u003C/w\u003E": 5490,
    "acordeonista\u003C/w\u003E": 5491,
    "modesta\u003C/w\u003E": 5492,
    "onetto\u003C/w\u003E": 5493,
    "art\u00EDstica\u003C/w\u003E": 5494,
    "magia\u003C/w\u003E": 5495,
    "abrazada\u003C/w\u003E": 5496,
    "despertar\u003C/w\u003E": 5497,
    "adormecida\u003C/w\u003E": 5498,
    "chango\u003C/w\u003E": 5499,
    "spasiu": 5500,
    "spasiuk\u003C/w\u003E": 5501,
    "logra\u003C/w\u003E": 5502,
    "sonoridades\u003C/w\u003E": 5503,
    "polcas\u003C/w\u003E": 5504,
    "rancheras\u003C/w\u003E": 5505,
    "rasguidos\u003C/w\u003E": 5506,
    "precursores\u003C/w\u003E": 5507,
    "marlon\u003C/w\u003E": 5508,
    "maciel\u003C/w\u003E": 5509,
    "aur\u00E9lio\u003C/w\u003E": 5510,
    "miranda\u003C/w\u003E": 5511,
    "zez": 5512,
    "zezin": 5513,
    "zezinho\u003C/w\u003E": 5514,
    "hum": 5515,
    "humberto\u003C/w\u003E": 5516,
    "yu": 5517,
    "yule\u003C/w\u003E": 5518,
    "maur\u00EDcio\u003C/w\u003E": 5519,
    "elinho\u003C/w\u003E": 5520,
    "bandoneon\u003C/w\u003E": 5521,
    "tost\u00E3o\u003C/w\u003E": 5522,
    "mineiro\u003C/w\u003E": 5523,
    "marcelo\u003C/w\u003E": 5524,
    "loureiro\u003C/w\u003E": 5525,
    "j\u00FAni": 5526,
    "j\u00FAnior": 5527,
    "j\u00FAniors\u003C/w\u003E": 5528,
    "fil": 5529,
    "filho\u003C/w\u003E": 5530,
    "bruna\u003C/w\u003E": 5531,
    "viola\u003C/w\u003E": 5532,
    "dupla\u003C/w\u003E": 5533,
    "instituy\u00F3\u003C/w\u003E": 5534,
    "113\u003C/w\u003E": 5535,
    "201\u003C/w\u003E": 5536,
    "bril": 5537,
    "brilhante\u003C/w\u003E": 5538,
    "bailable\u003C/w\u003E": 5539,
    "folkl\u00F3rica\u003C/w\u003E": 5540,
    "r\u00EDtmica\u003C/w\u003E": 5541,
    "rasgu": 5542,
    "rasgue": 5543,
    "rasgueo\u003C/w\u003E": 5544,
    "mel\u00F3dica\u003C/w\u003E": 5545,
    "cultiv": 5546,
    "cultivado\u003C/w\u003E": 5547,
    "lucir\u003C/w\u003E": 5548,
    "quieren\u003C/w\u003E": 5549,
    "pretenden\u003C/w\u003E": 5550,
    "adaptando\u003C/w\u003E": 5551,
    "sugesti": 5552,
    "sugesti\u00F3n\u003C/w\u003E": 5553,
    "jam\u00E1s\u003C/w\u003E": 5554,
    "cambia\u003C/w\u003E": 5555,
    "sapuk": 5556,
    "sapukay\u003C/w\u003E": 5557,
    "festejando\u003C/w\u003E": 5558,
    "concor": 5559,
    "concordante\u003C/w\u003E": 5560,
    "creatividad\u003C/w\u003E": 5561,
    "moderados\u003C/w\u003E": 5562,
    "requiebros\u003C/w\u003E": 5563,
    "hombros\u003C/w\u003E": 5564,
    "apoya\u003C/w\u003E": 5565,
    "quiebran\u003C/w\u003E": 5566,
    "cinturas\u003C/w\u003E": 5567,
    "juntar\u003C/w\u003E": 5568,
    "torsos\u003C/w\u003E": 5569,
    "reclinar\u003C/w\u003E": 5570,
    "lucimiento\u003C/w\u003E": 5571,
    "creadores\u003C/w\u003E": 5572,
    "trancado\u003C/w\u003E": 5573,
    "trancadi": 5574,
    "trancadito\u003C/w\u003E": 5575,
    "requiebro\u003C/w\u003E": 5576,
    "aproxima\u003C/w\u003E": 5577,
    "apoy": 5578,
    "apoy\u00E1ndose\u003C/w\u003E": 5579,
    "punta\u003C/w\u003E": 5580,
    "trancada\u003C/w\u003E": 5581,
    "recomenzar\u003C/w\u003E": 5582,
    "bambole": 5583,
    "bamboleo\u003C/w\u003E": 5584,
    "torso\u003C/w\u003E": 5585,
    "arrastrado\u003C/w\u003E": 5586,
    "quebrado\u003C/w\u003E": 5587,
    "deslizando\u003C/w\u003E": 5588,
    "semio": 5589,
    "semiovalo\u003C/w\u003E": 5590,
    "zambullida\u003C/w\u003E": 5591,
    "arrastra\u003C/w\u003E": 5592,
    "permiti\u00E9ndose\u003C/w\u003E": 5593,
    "recobrar\u003C/w\u003E": 5594,
    "verticalidad\u003C/w\u003E": 5595,
    "suavidad\u003C/w\u003E": 5596,
    "quedan\u003C/w\u003E": 5597,
    "segundos\u003C/w\u003E": 5598,
    "tante\u00E1ndole\u003C/w\u003E": 5599,
    "contestado\u003C/w\u003E": 5600,
    "zapateara\u003C/w\u003E": 5601,
    "due": 5602,
    "due\u00F1o\u003C/w\u003E": 5603,
    "var\u00F3n\u003C/w\u003E": 5604,
    "ju\u00E9\u003C/w\u003E": 5605,
    "obliga\u003C/w\u003E": 5606,
    "inmediato\u003C/w\u003E": 5607,
    "mover\u003C/w\u003E": 5608,
    "agitarla\u003C/w\u003E": 5609,
    "bailarinas\u003C/w\u003E": 5610,
    "taconeo\u003C/w\u003E": 5611,
    "cepi": 5612,
    "cepil": 5613,
    "cepillado\u003C/w\u003E": 5614,
    "escobil": 5615,
    "escobillada\u003C/w\u003E": 5616,
    "floreo\u003C/w\u003E": 5617,
    "escobilleo\u003C/w\u003E": 5618,
    "enlazados\u003C/w\u003E": 5619,
    "encarga\u003C/w\u003E": 5620,
    "sujetada\u003C/w\u003E": 5621,
    "indicaba\u003C/w\u003E": 5622,
    "evit": 5623,
    "evit\u00E1ndose\u003C/w\u003E": 5624,
    "exageraciones\u003C/w\u003E": 5625,
    "cuartetas\u003C/w\u003E": 5626,
    "audaces\u003C/w\u003E": 5627,
    "debiendo\u003C/w\u003E": 5628,
    "comienzan\u003C/w\u003E": 5629,
    "palabras\u003C/w\u003E": 5630,
    "intencionales\u003C/w\u003E": 5631,
    "rueda\u003C/w\u003E": 5632,
    "mirones\u003C/w\u003E": 5633,
    "expectativa\u003C/w\u003E": 5634,
    "reciben\u003C/w\u003E": 5635,
    "conteste\u003C/w\u003E": 5636,
    "contesta\u003C/w\u003E": 5637,
    "festejado\u003C/w\u003E": 5638,
    "algarab": 5639,
    "algarab\u00EDa\u003C/w\u003E": 5640,
    "protagonistas\u003C/w\u003E": 5641,
    "concurrencia\u003C/w\u003E": 5642,
    "acuda\u003C/w\u003E": 5643,
    "burla\u003C/w\u003E": 5644,
    "intencional\u003C/w\u003E": 5645,
    "burro\u003C/w\u003E": 5646,
    "tiraste\u003C/w\u003E": 5647,
    "pr\u00F3xima\u003C/w\u003E": 5648,
    "\u00A1\u003C/w\u003E": 5649,
    "!\u003C/w\u003E": 5650,
    "cadenci": 5651,
    "cadenciosa\u003C/w\u003E": 5652,
    "zapatea\u003C/w\u003E": 5653,
    "acompa\u00F1ado\u003C/w\u003E": 5654,
    "facilita\u003C/w\u003E": 5655,
    "di\u00E1lo": 5656,
    "di\u00E1logo\u003C/w\u003E": 5657,
    "porfirio\u003C/w\u003E": 5658,
    "zappa\u003C/w\u003E": 5659,
    "\u00F1urpy\u003C/w\u003E": 5660,
    "variante\u003C/w\u003E": 5661,
    "bonaeren": 5662,
    "bonaerense\u003C/w\u003E": 5663,
    "remedo\u003C/w\u003E": 5664,
    "creadora\u003C/w\u003E": 5665,
    "rerf": 5666,
    "rerflaciones\u003C/w\u003E": 5667,
    "individual\u003C/w\u003E": 5668,
    "act\u00FA": 5669,
    "act\u00FAan\u003C/w\u003E": 5670,
    "libremente\u003C/w\u003E": 5671,
    "dirigidas\u003C/w\u003E": 5672,
    "antojadiza\u003C/w\u003E": 5673,
    "d\u00E1ndole\u003C/w\u003E": 5674,
    "valsesitos\u003C/w\u003E": 5675,
    "an\u00F3nimos\u003C/w\u003E": 5676,
    "titula\u003C/w\u003E": 5677,
    "linda\u003C/w\u003E": 5678,
    "korn\u003C/w\u003E": 5679,
    "estil\u00F3\u003C/w\u003E": 5680,
    "danzarines\u003C/w\u003E": 5681,
    "convocatori": 5682,
    "convocatoria\u003C/w\u003E": 5683,
    "imprevista\u003C/w\u003E": 5684,
    "familiares\u003C/w\u003E": 5685,
    "casamientos\u003C/w\u003E": 5686,
    "cumple": 5687,
    "cumplea\u00F1os\u003C/w\u003E": 5688,
    "patrias\u003C/w\u003E": 5689,
    "anunci": 5690,
    "anunciaci\u00F3n\u003C/w\u003E": 5691,
    "contin\u00FA": 5692,
    "contin\u00FAan\u003C/w\u003E": 5693,
    "realiz\u00E1ndose\u003C/w\u003E": 5694,
    "mencho\u003C/w\u003E": 5695,
    "cambi\u00F3\u003C/w\u003E": 5696,
    "elegan": 5697,
    "elegancia\u003C/w\u003E": 5698,
    "atuen": 5699,
    "atuendos\u003C/w\u003E": 5700,
    "acontecimi": 5701,
    "acontecimientos\u003C/w\u003E": 5702,
    "viven": 5703,
    "vivencias\u003C/w\u003E": 5704,
    "indumentari": 5705,
    "indumentaria\u003C/w\u003E": 5706,
    "predominando\u003C/w\u003E": 5707,
    "vasco\u003C/w\u003E": 5708,
    "directa\u003C/w\u003E": 5709,
    "imponerse\u003C/w\u003E": 5710,
    "for\u00E1neos\u003C/w\u003E": 5711,
    "faenas\u003C/w\u003E": 5712,
    "cotidi": 5713,
    "cotidianas\u003C/w\u003E": 5714,
    "mencionado\u003C/w\u003E": 5715,
    "distingue\u003C/w\u003E": 5716,
    "utilizados\u003C/w\u003E": 5717,
    "revolver\u00E1\u003C/w\u003E": 5718,
    "monedero\u003C/w\u003E": 5719,
    "posterior\u003C/w\u003E": 5720,
    "aprision": 5721,
    "aprision\u00E1ndolo\u003C/w\u003E": 5722,
    "chaira\u003C/w\u003E": 5723,
    "sacarle\u003C/w\u003E": 5724,
    "acostumbra\u003C/w\u003E": 5725,
    "indica\u003C/w\u003E": 5726,
    "preservar\u003C/w\u003E": 5727,
    "emplean\u003C/w\u003E": 5728,
    "permita\u003C/w\u003E": 5729,
    "sujetar": 5730,
    "sujetarla\u003C/w\u003E": 5731,
    "cl\u00E1sicas\u003C/w\u003E": 5732,
    "vueltas\u003C/w\u003E": 5733,
    "correa\u003C/w\u003E": 5734,
    "extremo\u003C/w\u003E": 5735,
    "penden\u003C/w\u003E": 5736,
    "reafirman\u003C/w\u003E": 5737,
    "viril\u003C/w\u003E": 5738,
    "arrollada\u003C/w\u003E": 5739,
    "tirar\u003C/w\u003E": 5740,
    "cuel": 5741,
    "cuelga\u003C/w\u003E": 5742,
    "airosamente\u003C/w\u003E": 5743,
    "flecos\u003C/w\u003E": 5744,
    "asustar\u003C/w\u003E": 5745,
    "brete\u003C/w\u003E": 5746,
    "pig\u00FCelo\u003C/w\u003E": 5747,
    "circulares\u003C/w\u003E": 5748,
    "llamadas\u003C/w\u003E": 5749,
    "guardapol": 5750,
    "guardapolvos\u003C/w\u003E": 5751,
    "encier": 5752,
    "encierran\u003C/w\u003E": 5753,
    "di\u00E1metro\u003C/w\u003E": 5754,
    "agudas\u003C/w\u003E": 5755,
    "p\u00FAas\u003C/w\u003E": 5756,
    "clavos\u003C/w\u003E": 5757,
    "redondel\u003C/w\u003E": 5758,
    "profusamente\u003C/w\u003E": 5759,
    "estrellado\u003C/w\u003E": 5760,
    "infaltable\u003C/w\u003E": 5761,
    "rebenque\u003C/w\u003E": 5762,
    "vicu\u00F1a\u003C/w\u003E": 5763,
    "indefecti": 5764,
    "indefectib": 5765,
    "indefectiblemente\u003C/w\u003E": 5766,
    "remplaza\u003C/w\u003E": 5767,
    "cinti": 5768,
    "cintillo\u003C/w\u003E": 5769,
    "recta\u003C/w\u003E": 5770,
    "quebrada\u003C/w\u003E": 5771,
    "prescindir\u003C/w\u003E": 5772,
    "sombre": 5773,
    "sombreo\u003C/w\u003E": 5774,
    "angosta\u003C/w\u003E": 5775,
    "admi": 5776,
    "admiraci\u00F3n\u003C/w\u003E": 5777,
    "inmen": 5778,
    "inmensa\u003C/w\u003E": 5779,
    "disimulada\u003C/w\u003E": 5780,
    "peque\u00F1\u00ED": 5781,
    "peque\u00F1\u00EDsima\u003C/w\u003E": 5782,
    "repartidas\u003C/w\u003E": 5783,
    "azul\u003C/w\u003E": 5784,
    "curtido\u003C/w\u003E": 5785,
    "cintos\u003C/w\u003E": 5786,
    "incru": 5787,
    "incrustaciones\u003C/w\u003E": 5788,
    "habitual\u003C/w\u003E": 5789,
    "seda\u003C/w\u003E": 5790,
    "triangular\u003C/w\u003E": 5791,
    "bordadas\u003C/w\u003E": 5792,
    "anudado\u003C/w\u003E": 5793,
    "correderas\u003C/w\u003E": 5794,
    "calzado\u003C/w\u003E": 5795,
    "fiestero\u003C/w\u003E": 5796,
    "lugare\u00F1": 5797,
    "lugare\u00F1os\u003C/w\u003E": 5798,
    "tirado\u003C/w\u003E": 5799,
    "engan": 5800,
    "enganchada\u003C/w\u003E": 5801,
    "cruzado\u003C/w\u003E": 5802,
    "estampado\u003C/w\u003E": 5803,
    "variados\u003C/w\u003E": 5804,
    "remplazada\u003C/w\u003E": 5805,
    "falda\u003C/w\u003E": 5806,
    "fald\u00F3n\u003C/w\u003E": 5807,
    "confeccionada\u003C/w\u003E": 5808,
    "floreados\u003C/w\u003E": 5809,
    "ruedo\u003C/w\u003E": 5810,
    "cubriendo\u003C/w\u003E": 5811,
    "armar\u003C/w\u003E": 5812,
    "alpargatas\u003C/w\u003E": 5813,
    "peinada\u003C/w\u003E": 5814,
    "trenzas\u003C/w\u003E": 5815,
    "sujetadas\u003C/w\u003E": 5816,
    "cintas\u003C/w\u003E": 5817,
    "utilizado\u003C/w\u003E": 5818,
    "melod\u00EDas\u003C/w\u003E": 5819,
    "actuaciones\u003C/w\u003E": 5820,
    "sinn\u00FAmero\u003C/w\u003E": 5821,
    "sapuk\u00E1i\u003C/w\u003E": 5822,
    "surge\u003C/w\u003E": 5823,
    "intensas\u003C/w\u003E": 5824,
    "consoli": 5825,
    "consolid": 5826,
    "consolid\u00E1ndose\u003C/w\u003E": 5827,
    "celebr\u00F3\u003C/w\u003E": 5828,
    "conmemora\u003C/w\u003E": 5829,
    "2026\u003C/w\u003E": 5830,
    "21\u00AA\u003C/w\u003E": 5831,
    "5\u00BA\u003C/w\u003E": 5832,
    "llevar\u00E1\u003C/w\u003E": 5833,
    "26\u003C/w\u003E": 5834,
    "cari\u00F1osa\u003C/w\u003E": 5835,
    "cuarta\u003C/w\u003E": 5836,
    "poseer\u003C/w\u003E": 5837,
    "secundando\u003C/w\u003E": 5838,
    "palermo\u003C/w\u003E": 5839,
    "244\u003C/w\u003E": 5840,
    "jo\u00E3o\u003C/w\u003E": 5841,
    "gou": 5842,
    "goular": 5843,
    "goulart\u003C/w\u003E": 5844,
    "jan": 5845,
    "jango\u003C/w\u003E": 5846,
    "1964\u003C/w\u003E": 5847,
    "advocaci\u00F3n\u003C/w\u003E": 5848,
    "cari\u00F1osamente\u003C/w\u003E": 5849,
    "entra\u00F1as\u003C/w\u003E": 5850,
    "atrincheramiento\u003C/w\u003E": 5851,
    "agruparon\u003C/w\u003E": 5852,
    "rinc\u00F3n\u003C/w\u003E": 5853,
    "agua": 5854,
    "agua\u00ED\u003C/w\u003E": 5855,
    "ba\u00F1ado\u003C/w\u003E": 5856,
    "caudaloso\u003C/w\u003E": 5857,
    "requiri\u00F3\u003C/w\u003E": 5858,
    "insisti": 5859,
    "insistieron\u003C/w\u003E": 5860,
    "ntra\u003C/w\u003E": 5861,
    "d\u00F3n": 5862,
    "d\u00F3nde\u003C/w\u003E": 5863,
    "emplaza\u003C/w\u003E": 5864,
    "anterioridad\u003C/w\u003E": 5865,
    "fije\u003C/w\u003E": 5866,
    "alza\u003C/w\u003E": 5867,
    "aceptada\u003C/w\u003E": 5868,
    "proclama\u003C/w\u003E": 5869,
    "186": 5870,
    "1864\u003C/w\u003E": 5871,
    "\u2212\u003C/w\u003E": 5872,
    "celsi": 5873,
    "celsius\u003C/w\u003E": 5874,
    "armon": 5875,
    "armon\u00EDa\u003C/w\u003E": 5876,
    "concreta\u003C/w\u003E": 5877,
    "l\u00EDnea\u003C/w\u003E": 5878,
    "ecl": 5879,
    "ecl\u00E9c": 5880,
    "ecl\u00E9ctico\u003C/w\u003E": 5881,
    "tipolog": 5882,
    "tipolog\u00EDas\u003C/w\u003E": 5883,
    "patios\u003C/w\u003E": 5884,
    "ejecutados\u003C/w\u003E": 5885,
    "mamposter\u00EDa\u003C/w\u003E": 5886,
    "ladrillos\u003C/w\u003E": 5887,
    "mampuestos\u003C/w\u003E": 5888,
    "proced\u00EDa\u003C/w\u003E": 5889,
    "alba\u00F1": 5890,
    "alba\u00F1i": 5891,
    "alba\u00F1iles\u003C/w\u003E": 5892,
    "trabajaban\u003C/w\u003E": 5893,
    "neoc": 5894,
    "neocl\u00E1sico\u003C/w\u003E": 5895,
    "pintoresquista\u003C/w\u003E": 5896,
    "almo": 5897,
    "almohadi": 5898,
    "almohadil": 5899,
    "almohadilladas\u003C/w\u003E": 5900,
    "frontis\u003C/w\u003E": 5901,
    "triangu": 5902,
    "triangulares\u003C/w\u003E": 5903,
    "alternados\u003C/w\u003E": 5904,
    "revoque\u003C/w\u003E": 5905,
    "frentes\u003C/w\u003E": 5906,
    "observan\u003C/w\u003E": 5907,
    "caracterizan\u003C/w\u003E": 5908,
    "construc": 5909,
    "constructores\u003C/w\u003E": 5910,
    "coincidiendo\u003C/w\u003E": 5911,
    "um": 5912,
    "umb": 5913,
    "umbrales\u003C/w\u003E": 5914,
    "m\u00E1rmol\u003C/w\u003E": 5915,
    "azulejos\u003C/w\u003E": 5916,
    "franceses\u003C/w\u003E": 5917,
    "cancel\u003C/w\u003E": 5918,
    "forj": 5919,
    "forjado\u003C/w\u003E": 5920,
    "torneos\u003C/w\u003E": 5921,
    "disciplinas\u003C/w\u003E": 5922,
    "224\u003C/w\u003E": 5923,
    "espont\u00E1neamente\u003C/w\u003E": 5924,
    "bienes\u003C/w\u003E": 5925,
    "emergi\u00F3\u003C/w\u003E": 5926,
    "instan": 5927,
    "instancia\u003C/w\u003E": 5928,
    "portuario\u003C/w\u003E": 5929,
    "acercamiento\u003C/w\u003E": 5930,
    "inundables\u003C/w\u003E": 5931,
    "ignora\u003C/w\u003E": 5932,
    "resuelto\u003C/w\u003E": 5933,
    "proximi": 5934,
    "proximidades\u003C/w\u003E": 5935,
    "aculturaci\u00F3n\u003C/w\u003E": 5936,
    "peticionando\u003C/w\u003E": 5937,
    "dep\u00F3": 5938,
    "dep\u00F3sito\u003C/w\u003E": 5939,
    "vac\u00ED": 5940,
    "vac\u00EDo\u003C/w\u003E": 5941,
    "yermo\u003C/w\u003E": 5942,
    "criar\u003C/w\u003E": 5943,
    "petitorio\u003C/w\u003E": 5944,
    "adju": 5945,
    "adjudic\u00E1n": 5946,
    "adjudic\u00E1ndosele\u003C/w\u003E": 5947,
    "do\u00F1a\u003C/w\u003E": 5948,
    "concurrido\u003C/w\u003E": 5949,
    "almac\u00E9n\u003C/w\u003E": 5950,
    "c\u00E9lebre\u003C/w\u003E": 5951,
    "aquel\u003C/w\u003E": 5952,
    "ladislao\u003C/w\u003E": 5953,
    "gutier": 5954,
    "gutierrez\u003C/w\u003E": 5955,
    "sociali": 5956,
    "socialit\u00E9\u003C/w\u003E": 5957,
    "maria\u003C/w\u003E": 5958,
    "gorman\u003C/w\u003E": 5959,
    "huyeron\u003C/w\u003E": 5960,
    "clandestinamente\u003C/w\u003E": 5961,
    "dirigieron\u003C/w\u003E": 5962,
    "aprehen": 5963,
    "aprehendidos\u003C/w\u003E": 5964,
    "llevados\u003C/w\u003E": 5965,
    "subsecuentemente\u003C/w\u003E": 5966,
    "fusilados\u003C/w\u003E": 5967,
    "muestran\u003C/w\u003E": 5968,
    "pobladora\u003C/w\u003E": 5969,
    "lusitano\u003C/w\u003E": 5970,
    "c\u00F3nyu": 5971,
    "c\u00F3nyuge\u003C/w\u003E": 5972,
    "agda\u003C/w\u003E": 5973,
    "baloncesto\u003C/w\u003E": 5974,
    "inmaculada\u003C/w\u003E": 5975,
    "tapocco\u003C/w\u003E": 5976,
    "loza\u003C/w\u003E": 5977,
    "foo": 5978,
    "foot": 5979,
    "footbal": 5980,
    "football\u003C/w\u003E": 5981,
    "jockey\u003C/w\u003E": 5982,
    "cart\u00F3": 5983,
    "cart\u00F3dromo\u003C/w\u003E": 5984,
    "cg": 5985,
    "cgt\u003C/w\u003E": 5986,
    "lurdes\u003C/w\u003E": 5987,
    "jard\u00ED": 5988,
    "jard\u00EDn\u003C/w\u003E": 5989,
    "leandro\u003C/w\u003E": 5990,
    "valenzuela\u003C/w\u003E": 5991,
    "comprendida\u003C/w\u003E": 5992,
    "neustad\u003C/w\u003E": 5993,
    "vel\u00F3dromo\u003C/w\u003E": 5994,
    "cicl\u00ED": 5995,
    "cicl\u00EDstico\u003C/w\u003E": 5996,
    "96\u003C/w\u003E": 5997,
    "marinco": 5998,
    "marincovich\u003C/w\u003E": 5999,
    "h\u00E9ro": 6000,
    "h\u00E9roes\u003C/w\u003E": 6001,
    "alverdi\u003C/w\u003E": 6002,
    "xxiii\u003C/w\u003E": 6003,
    "calcu": 6004,
    "calcuta\u003C/w\u003E": 6005,
    "monse\u00F1or\u003C/w\u003E": 6006,
    "\u00F1anderoga\u003C/w\u003E": 6007,
    "\u00F1apin": 6008,
    "\u00F1apind": 6009,
    "\u00F1apind\u00E1\u003C/w\u003E": 6010,
    "as\u00EDs\u003C/w\u003E": 6011,
    "hoz\u003C/w\u003E": 6012,
    "luj": 6013,
    "luj\u00E1n\u003C/w\u003E": 6014,
    "van\u003C/w\u003E": 6015,
    "proyectando\u003C/w\u003E": 6016,
    "benjamin\u003C/w\u003E": 6017,
    "matienzo\u003C/w\u003E": 6018,
    "iris\u003C/w\u003E": 6019,
    "coembot\u00E1\u003C/w\u003E": 6020,
    "bosco\u003C/w\u003E": 6021,
    "mariano\u003C/w\u003E": 6022,
    "caaguaz\u00FA\u003C/w\u003E": 6023,
    "bigu\u00E1s\u003C/w\u003E": 6024,
    "ca\u00F1as\u003C/w\u003E": 6025,
    "alternativas\u003C/w\u003E": 6026,
    "tur\u00EDsticas\u003C/w\u003E": 6027,
    "piragua\u003C/w\u003E": 6028,
    "rodeados\u003C/w\u003E": 6029,
    "much\u00ED": 6030,
    "much\u00EDsima\u003C/w\u003E": 6031,
    "concluyen\u003C/w\u003E": 6032,
    "limpias\u003C/w\u003E": 6033,
    "win": 6034,
    "wind": 6035,
    "windsur": 6036,
    "windsurf\u003C/w\u003E": 6037,
    "cascadita\u003C/w\u003E": 6038,
    "barrancas\u003C/w\u003E": 6039,
    "alt\u00ED": 6040,
    "alt\u00EDsimas\u003C/w\u003E": 6041,
    "impen": 6042,
    "impensables\u003C/w\u003E": 6043,
    "cascadas\u003C/w\u003E": 6044,
    "curvas\u003C/w\u003E": 6045,
    "pronunciadas\u003C/w\u003E": 6046,
    "gu\u00EDas\u003C/w\u003E": 6047,
    "n\u00E1utico\u003C/w\u003E": 6048,
    "degu": 6049,
    "degustar\u003C/w\u003E": 6050,
    "bailables\u003C/w\u003E": 6051,
    "inmigrantes\u003C/w\u003E": 6052,
    "italianos\u003C/w\u003E": 6053,
    "perci": 6054,
    "percibe\u003C/w\u003E": 6055,
    "preservadas\u003C/w\u003E": 6056,
    "toque\u003C/w\u003E": 6057,
    "c\u00F3digo\u003C/w\u003E": 6058,
    "planeamiento\u003C/w\u003E": 6059,
    "alterado\u003C/w\u003E": 6060,
    "deteriorado\u003C/w\u003E": 6061,
    "inclusi": 6062,
    "inclusive\u003C/w\u003E": 6063,
    "mausole": 6064,
    "mausoleo\u003C/w\u003E": 6065,
    "inaugurada\u003C/w\u003E": 6066,
    "190": 6067,
    "1902\u003C/w\u003E": 6068,
    "testimonian\u003C/w\u003E": 6069,
    "cristiana\u003C/w\u003E": 6070,
    "cuantioso\u003C/w\u003E": 6071,
    "convocantes\u003C/w\u003E": 6072,
    "participantes\u003C/w\u003E": 6073,
    "espect\u00E1culos\u003C/w\u003E": 6074,
    "participaci\u00F3n\u003C/w\u003E": 6075,
    "sociales\u003C/w\u003E": 6076,
    "postulantes\u003C/w\u003E": 6077,
    "participan\u003C/w\u003E": 6078,
    "exterior\u003C/w\u003E": 6079,
    "programaci\u00F3n\u003C/w\u003E": 6080,
    "re\u00FAne\u003C/w\u003E": 6081,
    "fieles\u003C/w\u003E": 6082,
    "re\u00FAnen\u003C/w\u003E": 6083,
    "5000\u003C/w\u003E": 6084,
    "colegios\u003C/w\u003E": 6085,
    "fogones\u003C/w\u003E": 6086,
    "cierre\u003C/w\u003E": 6087,
    "elegida\u003C/w\u003E": 6088,
    "educativos\u003C/w\u003E": 6089,
    "46": 6090,
    "4678\u003C/w\u003E": 6091,
    "comprendido\u003C/w\u003E": 6092,
    "subregi\u00F3n\u003C/w\u003E": 6093,
    "caracterizado\u003C/w\u003E": 6094,
    "verdaderas\u003C/w\u003E": 6095,
    "cerradas\u003C/w\u003E": 6096,
    "acumula\u003C/w\u003E": 6097,
    "elevado\u003C/w\u003E": 6098,
    "1100\u003C/w\u003E": 6099,
    "municipalidad\u003C/w\u003E": 6100,
    "implement\u00F3\u003C/w\u003E": 6101,
    "barreras\u003C/w\u003E": 6102,
    "cocodri": 6103,
    "cocodrilo\u003C/w\u003E": 6104,
    "boa\u003C/w\u003E": 6105,
    "lavador\u003C/w\u003E": 6106,
    "aullador\u003C/w\u003E": 6107,
    "zorrino\u003C/w\u003E": 6108,
    "\u00F1and\u00FA\u003C/w\u003E": 6109,
    "avestruz\u003C/w\u003E": 6110,
    "vizcacha\u003C/w\u003E": 6111,
    "liebre\u003C/w\u003E": 6112,
    "perdiz\u003C/w\u003E": 6113,
    "peludo\u003C/w\u003E": 6114,
    "mulita\u003C/w\u003E": 6115,
    "comadreja\u003C/w\u003E": 6116,
    "corzuela\u003C/w\u003E": 6117,
    "parda\u003C/w\u003E": 6118,
    "megaroedor\u003C/w\u003E": 6119,
    "garza\u003C/w\u003E": 6120,
    "yerut\u00ED\u003C/w\u003E": 6121,
    "barranquero\u003C/w\u003E": 6122,
    "extintos\u003C/w\u003E": 6123,
    "boga\u003C/w\u003E": 6124,
    "tararira\u003C/w\u003E": 6125,
    "quedaron\u003C/w\u003E": 6126,
    "jaguar\u003C/w\u003E": 6127,
    "reintroducirlo\u003C/w\u003E": 6128,
    "2014\u003C/w\u003E": 6129,
    "concretamente\u003C/w\u003E": 6130,
    "antr\u00F3pica\u003C/w\u003E": 6131,
    "extinguirse\u003C/w\u003E": 6132,
    "llamativas\u003C/w\u003E": 6133,
    "alterna\u003C/w\u003E": 6134,
    "herb\u00E1cea\u003C/w\u003E": 6135,
    "arb": 6136,
    "arb\u00F3re": 6137,
    "arb\u00F3rea\u003C/w\u003E": 6138,
    "jacarand\u00E1\u003C/w\u003E": 6139,
    "carand\u00E1": 6140,
    "carand\u00E1y\u003C/w\u003E": 6141,
    "ibir\u00E1\u003C/w\u003E": 6142,
    "herb\u00E1ceas\u003C/w\u003E": 6143,
    "duraznillo\u003C/w\u003E": 6144,
    "juncales\u003C/w\u003E": 6145,
    "camalotes\u003C/w\u003E": 6146,
    "canutillos\u003C/w\u003E": 6147,
    "acu\u00E1ticos\u003C/w\u003E": 6148,
    "pasionari": 6149,
    "pasionaria\u003C/w\u003E": 6150,
    "zarza\u003C/w\u003E": 6151,
    "campanilla\u003C/w\u003E": 6152,
    "jaz": 6153,
    "jazm\u00ED": 6154,
    "jazm\u00EDn\u003C/w\u003E": 6155,
    "plumero\u003C/w\u003E": 6156,
    "ca\u00F1averal\u003C/w\u003E": 6157,
    "cardos\u003C/w\u003E": 6158,
    "anfitri": 6159,
    "anfitriona\u003C/w\u003E": 6160,
    "apasionados\u003C/w\u003E": 6161,
    "disciplina\u003C/w\u003E": 6162,
    "mosca\u003C/w\u003E": 6163,
    "se\u00F1u": 6164,
    "se\u00F1uelos\u003C/w\u003E": 6165,
    "cutir\u00ED\u003C/w\u003E": 6166,
    "zambulli": 6167,
    "zambullidor\u003C/w\u003E": 6168,
    "fierro\u003C/w\u003E": 6169,
    "barcino\u003C/w\u003E": 6170,
    "cuchara\u003C/w\u003E": 6171,
    "pampa\u003C/w\u003E": 6172,
    "manchada\u003C/w\u003E": 6173,
    "torcaza\u003C/w\u003E": 6174,
    "torcacita\u003C/w\u003E": 6175,
    "perdices\u003C/w\u003E": 6176,
    "disponibles\u003C/w\u003E": 6177,
    "tataupa\u003C/w\u003E": 6178,
    "montaraz\u003C/w\u003E": 6179,
    "gansos\u003C/w\u003E": 6180,
    "obtend": 6181,
    "obtendr\u00E1\u003C/w\u003E": 6182,
    "podr\u00E1n\u003C/w\u003E": 6183,
    "epis": 6184,
    "episcopal\u003C/w\u003E": 6185,
    "pascual\u003C/w\u003E": 6186,
    "teo": 6187,
    "teodorico\u003C/w\u003E": 6188,
    "stock": 6189,
    "stockler\u003C/w\u003E": 6190,
    "oscar\u003C/w\u003E": 6191,
    "faifer\u003C/w\u003E": 6192,
    "3d\u003C/w\u003E": 6193,
    "proyectan\u003C/w\u003E": 6194,
    "otorgando\u003C/w\u003E": 6195,
    "galardones\u003C/w\u003E": 6196,
    "categor\u00EDas\u003C/w\u003E": 6197,
    "estatuilla\u003C/w\u003E": 6198,
    "goyano\u003C/w\u003E": 6199,
    "ofreci": 6200,
    "ofreciendo\u003C/w\u003E": 6201,
    "sustentable\u003C/w\u003E": 6202,
    "b\u00FA": 6203,
    "b\u00FAs": 6204,
    "b\u00FAsqueda\u003C/w\u003E": 6205,
    "urban": 6206,
    "urban\u00ED": 6207,
    "urban\u00EDstico\u003C/w\u003E": 6208,
    "preservaci\u00F3n\u003C/w\u003E": 6209,
    "museos\u003C/w\u003E": 6210,
    "circuitos\u003C/w\u003E": 6211,
    "tur\u00EDsticos\u003C/w\u003E": 6212,
    "estrat\u00E9gica\u003C/w\u003E": 6213,
    "ibera\u003C/w\u003E": 6214,
    "reciente\u003C/w\u003E": 6215,
    "vuelos\u003C/w\u003E": 6216,
    "estrat\u00E9gico\u003C/w\u003E": 6217,
    "candidatas\u003C/w\u003E": 6218,
    "acent\u00FAa\u003C/w\u003E": 6219,
    "sustenta\u003C/w\u003E": 6220,
    "exitosa\u003C/w\u003E": 6221,
    "mul": 6222,
    "multi": 6223,
    "multiplicarlos\u003C/w\u003E": 6224,
    "2001\u003C/w\u003E": 6225,
    "ayude\u003C/w\u003E": 6226,
    "artesan": 6227,
    "artesan\u00EDas\u003C/w\u003E": 6228,
    "cnm\u003C/w\u003E": 6229,
    "env\u00ED": 6230,
    "env\u00EDo\u003C/w\u003E": 6231
  },
  "Merges": [
    [
      "a",
      "\u003C/w\u003E"
    ],
    [
      "s",
      "\u003C/w\u003E"
    ],
    [
      "e",
      "\u003C/w\u003E"
    ],
    [
      "o",
      "\u003C/w\u003E"
    ],
    [
      "e",
      "n"
    ],
    [
      "l",
      "\u003C/w\u003E"
    ],
    [
      "d",
      "e\u003C/w\u003E"
    ],
    [
      ",",
      "\u003C/w\u003E"
    ],
    [
      "n",
      "\u003C/w\u003E"
    ],
    [
      "a",
      "r"
    ],
    [
      "e",
      "r"
    ],
    [
      "o",
      "s\u003C/w\u003E"
    ],
    [
      "c",
      "i"
    ],
    [
      "o",
      "r"
    ],
    [
      "e",
      "l\u003C/w\u003E"
    ],
    [
      "l",
      "a\u003C/w\u003E"
    ],
    [
      "e",
      "s\u003C/w\u003E"
    ],
    [
      "a",
      "d"
    ],
    [
      "a",
      "s\u003C/w\u003E"
    ],
    [
      "en",
      "t"
    ],
    [
      "a",
      "n"
    ],
    [
      "e",
      "s"
    ],
    [
      "c",
      "o"
    ],
    [
      "i",
      "n"
    ],
    [
      "y",
      "\u003C/w\u003E"
    ],
    [
      ".",
      "\u003C/w\u003E"
    ],
    [
      "a",
      "l"
    ],
    [
      "q",
      "u"
    ],
    [
      "o",
      "n"
    ],
    [
      "t",
      "i"
    ],
    [
      "p",
      "r"
    ],
    [
      "a",
      "m"
    ],
    [
      "r",
      "e"
    ],
    [
      "u",
      "n"
    ],
    [
      "\u00F3",
      "n\u003C/w\u003E"
    ],
    [
      "l",
      "os\u003C/w\u003E"
    ],
    [
      "s",
      "i"
    ],
    [
      "r",
      "i"
    ],
    [
      "qu",
      "e\u003C/w\u003E"
    ],
    [
      "es",
      "t"
    ],
    [
      "d",
      "el\u003C/w\u003E"
    ],
    [
      "s",
      "e\u003C/w\u003E"
    ],
    [
      "or",
      "\u003C/w\u003E"
    ],
    [
      "s",
      "u"
    ],
[...]
